{
  "version": "1.0",
  "truncation": null,
  "padding": {
    "strategy": "BatchLongest",
    "direction": "Right",
    "pad_to_multiple_of": null,
    "pad_id": 1,
    "pad_type_id": 0,
    "pad_token": "[pad]"
  },
  "added_tokens": [
    {
      "id": 0,
      "content": "[CLS]",
      "single_word": false,
      "lstrip": false,
      "rstrip": false,
      "normalized": false,
      "special": true
    },
    {
      "id": 1,
      "content": "[pad]",
      "single_word": false,
      "lstrip": false,
      "rstrip": false,
      "normalized": false,
      "special": true
    },
    {
      "id": 2,
      "content": "[eos]",
      "single_word": false,
      "lstrip": false,
      "rstrip": false,
      "normalized": false,
      "special": true
    }
  ],
  "normalizer": null,
  "pre_tokenizer": {
    "type": "ByteLevel",
    "add_prefix_space": true,
    "trim_offsets": true,
    "use_regex": true
  },
  "post_processor": null,
  "decoder": {
    "type": "ByteLevel",
    "add_prefix_space": true,
    "trim_offsets": true,
    "use_regex": true
  },
  "model": {
    "type": "BPE",
    "dropout": null,
    "unk_token": null,
    "continuing_subword_prefix": null,
    "end_of_word_suffix": null,
    "fuse_unk": false,
    "byte_fallback": false,
    "ignore_merges": false,
    "vocab": {
      "[CLS]": 0,
      "[pad]": 1,
      "[eos]": 2,
      "!": 3,
      "\"": 4,
      "$": 5,
      "&": 6,
      "'": 7,
      "(": 8,
      ")": 9,
      "*": 10,
      ",": 11,
      "-": 12,
      ".": 13,
      "/": 14,
      "0": 15,
      "1": 16,
      "2": 17,
      "3": 18,
      "4": 19,
      "5": 20,
      "6": 21,
      "7": 22,
      "8": 23,
      "9": 24,
      ":": 25,
      ";": 26,
      "=": 27,
      "?": 28,
      "A": 29,
      "B": 30,
      "C": 31,
      "D": 32,
      "E": 33,
      "F": 34,
      "G": 35,
      "H": 36,
      "I": 37,
      "J": 38,
      "K": 39,
      "L": 40,
      "M": 41,
      "N": 42,
      "O": 43,
      "P": 44,
      "Q": 45,
      "R": 46,
      "S": 47,
      "T": 48,
      "U": 49,
      "V": 50,
      "W": 51,
      "X": 52,
      "Y": 53,
      "Z": 54,
      "[": 55,
      "]": 56,
      "^": 57,
      "_": 58,
      "a": 59,
      "b": 60,
      "c": 61,
      "d": 62,
      "e": 63,
      "f": 64,
      "g": 65,
      "h": 66,
      "i": 67,
      "j": 68,
      "k": 69,
      "l": 70,
      "m": 71,
      "n": 72,
      "o": 73,
      "p": 74,
      "q": 75,
      "r": 76,
      "s": 77,
      "t": 78,
      "u": 79,
      "v": 80,
      "w": 81,
      "x": 82,
      "y": 83,
      "z": 84,
      "{": 85,
      "}": 86,
      "¡": 87,
      "¢": 88,
      "£": 89,
      "¤": 90,
      "¦": 91,
      "§": 92,
      "¨": 93,
      "©": 94,
      "ª": 95,
      "«": 96,
      "®": 97,
      "¯": 98,
      "°": 99,
      "³": 100,
      "´": 101,
      "¶": 102,
      "·": 103,
      "¹": 104,
      "º": 105,
      "¼": 106,
      "½": 107,
      "¿": 108,
      "Â": 109,
      "Ã": 110,
      "Å": 111,
      "Î": 112,
      "Ï": 113,
      "×": 114,
      "â": 115,
      "Ċ": 116,
      "Ġ": 117,
      "Ģ": 118,
      "ģ": 119,
      "Ĥ": 120,
      "Ħ": 121,
      "ī": 122,
      "Ĵ": 123,
      "ĵ": 124,
      "Ķ": 125,
      "ķ": 126,
      "Ĺ": 127,
      "ĺ": 128,
      "Ļ": 129,
      "ľ": 130,
      "Ŀ": 131,
      "ł": 132,
      "Ń": 133,
      "Ġt": 134,
      "he": 135,
      "Ġa": 136,
      "in": 137,
      "Ġs": 138,
      "Ġw": 139,
      "Ġthe": 140,
      "re": 141,
      "nd": 142,
      "Ġo": 143,
      "ha": 144,
      "âĢ": 145,
      "ou": 146,
      "er": 147,
      "ed": 148,
      "Ġb": 149,
      "it": 150,
      "is": 151,
      "ing": 152,
      "Ġm": 153,
      "Ġand": 154,
      "Ġf": 155,
      "en": 156,
      "on": 157,
      "Ġto": 158,
      "Ġc": 159,
      "Ġof": 160,
      "or": 161,
      "Ġh": 162,
      "ll": 163,
      "Ġd": 164,
      "Ġhe": 165,
      "es": 166,
      "as": 167,
      "ar": 168,
      "Ġl": 169,
      "an": 170,
      "Ġin": 171,
      "Ġp": 172,
      "at": 173,
      "Ġn": 174,
      "hat": 175,
      "om": 176,
      "Ġha": 177,
      "ĠI": 178,
      "le": 179,
      "ow": 180,
      "ot": 181,
      "Ġbe": 182,
      "ut": 183,
      "im": 184,
      "âĢľ": 185,
      "Ġg": 186,
      "ly": 187,
      "âĢĿ": 188,
      "st": 189,
      "id": 190,
      "Ġy": 191,
      "ic": 192,
      "se": 193,
      "Ġe": 194,
      "ve": 195,
      "Ġthat": 196,
      "ld": 197,
      "Ġwas": 198,
      "âĢĻ": 199,
      "Ġit": 200,
      "gh": 201,
      "Ġon": 202,
      "Ġth": 203,
      "ent": 204,
      "et": 205,
      "Ġyou": 206,
      "ce": 207,
      "ith": 208,
      "Ġhis": 209,
      "ay": 210,
      "ver": 211,
      "Ġre": 212,
      "Ġu": 213,
      "Ġwith": 214,
      "Ġas": 215,
      "ion": 216,
      "ir": 217,
      "ad": 218,
      "Ġwh": 219,
      "al": 220,
      "Ġfor": 221,
      "Ġher": 222,
      "ur": 223,
      "Ġnot": 224,
      "ro": 225,
      "ght": 226,
      "Ġst": 227,
      "her": 228,
      "Ġwe": 229,
      "ri": 230,
      "ch": 231,
      "Ġat": 232,
      "Ġhad": 233,
      "oo": 234,
      "Ġhim": 235,
      "Ġan": 236,
      "ould": 237,
      "Ġsa": 238,
      "ĠT": 239,
      "ter": 240,
      "Ġis": 241,
      "ke": 242,
      "and": 243,
      "Ġse": 244,
      "ct": 245,
      "Ġso": 246,
      "ill": 247,
      "ess": 248,
      "if": 249,
      "Ġme": 250,
      "ĠA": 251,
      "ain": 252,
      "ĠM": 253,
      "am": 254,
      "red": 255,
      "Ġshe": 256,
      "Ġbut": 257,
      "ĠH": 258,
      "Ġall": 259,
      "Ġmy": 260,
      "ome": 261,
      "ore": 262,
      "pe": 263,
      "Ġsu": 264,
      "ck": 265,
      "ra": 266,
      ".âĢĿ": 267,
      "all": 268,
      "ĠS": 269,
      "rom": 270,
      "il": 271,
      "th": 272,
      "Ġhave": 273,
      "ss": 274,
      "the": 275,
      "ich": 276,
      "ĠĠ": 277,
      "qu": 278,
      "Ġde": 279,
      "ĠâĢľ": 280,
      "Ġk": 281,
      "ĠP": 282,
      "ight": 283,
      "..": 284,
      "ĠB": 285,
      "hen": 286,
      "Ġsaid": 287,
      "to": 288,
      "Ġdo": 289,
      "Ġup": 290,
      "lf": 291,
      "ge": 292,
      "Ġsh": 293,
      "ble": 294,
      "pp": 295,
      "Ġby": 296,
      "ul": 297,
      "very": 298,
      "Ġr": 299,
      "ust": 300,
      "Ġfrom": 301,
      "em": 302,
      "out": 303,
      "Ġwere": 304,
      "ant": 305,
      "Ġcon": 306,
      "ol": 307,
      "Ġne": 308,
      "ook": 309,
      "ĠThe": 310,
      "ard": 311,
      "Ġfe": 312,
      "ous": 313,
      ",âĢĿ": 314,
      "un": 315,
      "est": 316,
      "one": 317,
      "Ġthis": 318,
      "Ġwhich": 319,
      "us": 320,
      "ind": 321,
      "ers": 322,
      "Ġwho": 323,
      "Ġone": 324,
      "Ġex": 325,
      "ov": 326,
      "Ġkn": 327,
      "Ġor": 328,
      "Ġv": 329,
      "ĠW": 330,
      "self": 331,
      "ong": 332,
      "ation": 333,
      "Ġli": 334,
      "art": 335,
      "Ġal": 336,
      "ood": 337,
      "ound": 338,
      "âĢĶ": 339,
      "Ġthey": 340,
      "Ġman": 341,
      "ast": 342,
      "our": 343,
      "Ġno": 344,
      "ie": 345,
      "?âĢĿ": 346,
      "ak": 347,
      "han": 348,
      "Ġthem": 349,
      "own": 350,
      "ost": 351,
      "ĠHe": 352,
      "ough": 353,
      "Ġout": 354,
      "ry": 355,
      "Ġthere": 356,
      "ist": 357,
      "Ġwhat": 358,
      "um": 359,
      "Ġare": 360,
      "itt": 361,
      "Ġwould": 362,
      "ĠD": 363,
      "!âĢĿ": 364,
      "Ġab": 365,
      "Ġbeen": 366,
      "Ġle": 367,
      "nt": 368,
      "ell": 369,
      "hed": 370,
      "ate": 371,
      "Ġcom": 372,
      "Ġwhen": 373,
      "Ġlook": 374,
      "el": 375,
      "ĠN": 376,
      "hing": 377,
      "ort": 378,
      "pt": 379,
      "Ġwor": 380,
      "ĠL": 381,
      "ven": 382,
      "ig": 383,
      "Ġfa": 384,
      "ure": 385,
      "ame": 386,
      "way": 387,
      "Ġyour": 388,
      "Ġif": 389,
      "--": 390,
      "The": 391,
      "Ġag": 392,
      "Ġgo": 393,
      "la": 394,
      "Ġj": 395,
      "po": 396,
      "Ġcould": 397,
      "ĠR": 398,
      "ive": 399,
      "per": 400,
      "Ġun": 401,
      "Ġro": 402,
      "ĠC": 403,
      "Ġdid": 404,
      "Ġqu": 405,
      "Ġwill": 406,
      "od": 407,
      "ide": 408,
      "lo": 409,
      "au": 410,
      "Ġam": 411,
      "other": 412,
      "Ġsome": 413,
      "Ġtheir": 414,
      "Ġtim": 415,
      "Ġar": 416,
      "ther": 417,
      "nder": 418,
      "ite": 419,
      "rin": 420,
      "Ġnow": 421,
      "Ġany": 422,
      "Ġaf": 423,
      "ity": 424,
      "ep": 425,
      "urn": 426,
      "Ġknow": 427,
      "reat": 428,
      "te": 429,
      "ice": 430,
      "able": 431,
      "Ġmore": 432,
      "ress": 433,
      "ake": 434,
      "ked": 435,
      "Ġpo": 436,
      "ĠĠĠĠ": 437,
      "ought": 438,
      "Ġcan": 439,
      "of": 440,
      "fore": 441,
      "li": 442,
      "Ġvery": 443,
      "ag": 444,
      "Ġinto": 445,
      "ĠF": 446,
      "op": 447,
      "Ġsee": 448,
      "fe": 449,
      "Ġlike": 450,
      "ĠJ": 451,
      "Ġtoo": 452,
      "Ġhand": 453,
      "ass": 454,
      "Ġthen": 455,
      "ittle": 456,
      "we": 457,
      "ab": 458,
      "Ġpre": 459,
      "are": 460,
      "Ã¡": 461,
      "ount": 462,
      "Ġtime": 463,
      "Ġonly": 464,
      "Ġabout": 465,
      "ally": 466,
      "Ġover": 467,
      "Ġsha": 468,
      "ĠAnd": 469,
      "ine": 470,
      "be": 471,
      "Ġagain": 472,
      "ious": 473,
      "ack": 474,
      "Ġus": 475,
      "dd": 476,
      "ance": 477,
      "Ġsay": 478,
      "here": 479,
      "ence": 480,
      "ac": 481,
      "Ġsp": 482,
      "ren": 483,
      "ove": 484,
      "Ġother": 485,
      "Ġim": 486,
      "Ã³": 487,
      "ier": 488,
      "ĠE": 489,
      "ru": 490,
      "me": 491,
      "de": 492,
      "Ġdown": 493,
      "You": 494,
      "Ġlittle": 495,
      "Ġhow": 496,
      "ish": 497,
      "ile": 498,
      "ving": 499,
      "ĠG": 500,
      "ink": 501,
      "wn": 502,
      "Ġpro": 503,
      "ĠMr": 504,
      "Ġoff": 505,
      "ather": 506,
      "ne": 507,
      "ved": 508,
      "ary": 509,
      "Ġthan": 510,
      "uch": 511,
      "Ġtw": 512,
      "ried": 513,
      "Ġsm": 514,
      "ĠBut": 515,
      "ire": 516,
      "ings": 517,
      "ies": 518,
      "cc": 519,
      "ness": 520,
      "ĠIt": 521,
      "ful": 522,
      "ull": 523,
      "Ġen": 524,
      "Ġhas": 525,
      "Ġevery": 526,
      "Ġbefore": 527,
      "ment": 528,
      "Ġbeg": 529,
      "ife": 530,
      "Ġch": 531,
      "Ġday": 532,
      "age": 533,
      "Ġseem": 534,
      "ade": 535,
      "Ġey": 536,
      "Ġbr": 537,
      "rew": 538,
      "Ġdis": 539,
      "Ġbo": 540,
      "Ġold": 541,
      "his": 542,
      "Ġshould": 543,
      "Ġrem": 544,
      "ap": 545,
      "right": 546,
      "ree": 547,
      "Ġlong": 548,
      "ran": 549,
      "ars": 550,
      "Ġmust": 551,
      "that": 552,
      "ose": 553,
      "Ġsuch": 554,
      "ĠO": 555,
      "Ġafter": 556,
      "Ġthought": 557,
      "ick": 558,
      "led": 559,
      "ng": 560,
      "Ġwent": 561,
      "omet": 562,
      "Ġco": 563,
      "ty": 564,
      "Ġpe": 565,
      "ward": 566,
      "ction": 567,
      "Ġgr": 568,
      "ady": 569,
      "Ġunder": 570,
      "ated": 571,
      "Ġhimself": 572,
      "os": 573,
      "...": 574,
      "sh": 575,
      "ip": 576,
      "Ġcome": 577,
      "Ġgood": 578,
      "Ġcame": 579,
      "Ġeven": 580,
      "Ġfir": 581,
      "Ġthink": 582,
      "man": 583,
      "Ġway": 584,
      "ened": 585,
      "for": 586,
      "rie": 587,
      "ave": 588,
      "Ġbl": 589,
      "Ġmuch": 590,
      "thing": 591,
      "ft": 592,
      "Ġface": 593,
      "Ġupon": 594,
      "Ġour": 595,
      "ÃŃ": 596,
      "Ġaway": 597,
      "na": 598,
      "ning": 599,
      "ierre": 600,
      "Ġeyes": 601,
      "ced": 602,
      "my": 603,
      "Ġhead": 604,
      "iss": 605,
      "ssi": 606,
      "rince": 607,
      "Ġlet": 608,
      "Ġturn": 609,
      "ily": 610,
      "ild": 611,
      "ber": 612,
      "ise": 613,
      "Ġgreat": 614,
      "Ġthr": 615,
      "ted": 616,
      "ĠShe": 617,
      "Ġown": 618,
      "Ġspe": 619,
      "co": 620,
      "Ġroom": 621,
      "Ġnever": 622,
      "Ġgl": 623,
      "ach": 624,
      "ark": 625,
      "Ġmade": 626,
      "Ġtwo": 627,
      "wh": 628,
      "les": 629,
      "ons": 630,
      "Ġ_": 631,
      "Ġpart": 632,
      "not": 633,
      "Ġmay": 634,
      "Ġper": 635,
      "Ġits": 636,
      "ps": 637,
      "Ġback": 638,
      "Ġlooked": 639,
      "ves": 640,
      "Ġsomet": 641,
      "He": 642,
      "Ġbec": 643,
      "Ġfirst": 644,
      "Ġpl": 645,
      "Ġhere": 646,
      "'t": 647,
      "Ġdon": 648,
      "sha": 649,
      "ff": 650,
      "ĠJo": 651,
      "Ġad": 652,
      "less": 653,
      "Ġsc": 654,
      "Ġhapp": 655,
      "Ġfo": 656,
      "Ġstill": 657,
      "ouse": 658,
      "ĠK": 659,
      "Ġho": 660,
      "ue": 661,
      "ause": 662,
      "Ġbet": 663,
      "Ġget": 664,
      "pect": 665,
      "Ġrep": 666,
      "Ġthough": 667,
      "ign": 668,
      "Ġjust": 669,
      "ied": 670,
      "ting": 671,
      "row": 672,
      "cess": 673,
      "Ġwhere": 674,
      "Ġword": 675,
      "leas": 676,
      "ces": 677,
      "king": 678,
      "Ġseemed": 679,
      "Ġdes": 680,
      "Ġlast": 681,
      "Ġcont": 682,
      "Ġshall": 683,
      "Ġwell": 684,
      "Ġmight": 685,
      "llow": 686,
      "Ġcha": 687,
      "eth": 688,
      "ĠPierre": 689,
      "Ġfl": 690,
      "Ġthese": 691,
      "so": 692,
      "Ġke": 693,
      "Ġtell": 694,
      "ently": 695,
      "Ġres": 696,
      "ions": 697,
      "aking": 698,
      "Ġpass": 699,
      "ud": 700,
      "'s": 701,
      "ni": 702,
      "Ġexp": 703,
      "tain": 704,
      "ord": 705,
      "riend": 706,
      "Ġtr": 707,
      "cy": 708,
      "Ġpr": 709,
      "Ġcomp": 710,
      "Ġbegan": 711,
      "Ġwithout": 712,
      "Ġmen": 713,
      "Ġfeel": 714,
      "Ġpla": 715,
      "Ġlife": 716,
      "Ġhar": 717,
      "Ġwant": 718,
      "with": 719,
      "Ġsaw": 720,
      "ER": 721,
      "âĢĺ": 722,
      "lt": 723,
      "ath": 724,
      "ner": 725,
      "Ġasked": 726,
      "Ġcons": 727,
      "Ġte": 728,
      "ci": 729,
      "ĠV": 730,
      "ever": 731,
      "It": 732,
      "Ġra": 733,
      "Ġsame": 734,
      "ling": 735,
      "ways": 736,
      "Ġob": 737,
      "Ġent": 738,
      "Ġop": 739,
      "oment": 740,
      "ater": 741,
      "ĠYou": 742,
      "And": 743,
      "HA": 744,
      "Ġthose": 745,
      "hale": 746,
      "atter": 747,
      "Ġyoung": 748,
      "Ġbeing": 749,
      "TER": 750,
      "fa": 751,
      "Ġsomething": 752,
      "Ġonce": 753,
      "Ġdoor": 754,
      "was": 755,
      "ory": 756,
      "Ġthrough": 757,
      "ared": 758,
      "ged": 759,
      "PTER": 760,
      "Ġnothing": 761,
      "HAPTER": 762,
      "Ġmost": 763,
      "Ġye": 764,
      "Ġcl": 765,
      "Ġsat": 766,
      "But": 767,
      "CHAPTER": 768,
      "ew": 769,
      "ect": 770,
      "get": 771,
      "Ġcount": 772,
      "Ġmake": 773,
      "Ġfelt": 774,
      "Ġtook": 775,
      "dden": 776,
      "ls": 777,
      "Ġfriend": 778,
      "med": 779,
      "vid": 780,
      "ener": 781,
      "atÃ¡": 782,
      "Ġwr": 783,
      "Ġdear": 784,
      "ĠPrince": 785,
      "Ġbel": 786,
      "Ġtal": 787,
      "iness": 788,
      "Ġleft": 789,
      "ople": 790,
      "Ġvo": 791,
      "Ġput": 792,
      "Ġmoment": 793,
      "pped": 794,
      "Ġcomm": 795,
      "Ġanother": 796,
      "Ġyet": 797,
      "Ġright": 798,
      "Ġnight": 799,
      "rench": 800,
      "Ġhor": 801,
      "ub": 802,
      "up": 803,
      "Ġimp": 804,
      "Ã©": 805,
      "ex": 806,
      "Ġret": 807,
      "Ġnew": 808,
      "hy": 809,
      "com": 810,
      "igh": 811,
      "Ġheard": 812,
      "atÃ¡sha": 813,
      "ask": 814,
      "iz": 815,
      "Ġatt": 816,
      "ished": 817,
      "Ġhouse": 818,
      "con": 819,
      "hes": 820,
      "Ġalways": 821,
      "ans": 822,
      "Ġhands": 823,
      "oth": 824,
      "Ġheart": 825,
      "Ġtake": 826,
      "ered": 827,
      "ret": 828,
      "What": 829,
      "Yes": 830,
      "Ġever": 831,
      "Ġ(": 832,
      "Ġcall": 833,
      "Ġpres": 834,
      "Ġacc": 835,
      "ody": 836,
      "Ġpa": 837,
      "Ã³v": 838,
      "Ġwhile": 839,
      "Ġlove": 840,
      "Ġround": 841,
      "Ġmar": 842,
      "most": 843,
      "you": 844,
      "ition": 845,
      "Ġpleas": 846,
      "ens": 847,
      "Ġgot": 848,
      "but": 849,
      "Ġser": 850,
      ".\"": 851,
      "lp": 852,
      "Ġfound": 853,
      "Ġend": 854,
      "oman": 855,
      "ĠSt": 856,
      "Ġfather": 857,
      "Ġap": 858,
      "Ġwa": 859,
      "oy": 860,
      "Ġpeople": 861,
      "ched": 862,
      ",\"": 863,
      "Ġmind": 864,
      "stand": 865,
      "Ġsoon": 866,
      "ully": 867,
      "Ġquite": 868,
      "ertain": 869,
      "uck": 870,
      "ger": 871,
      "Ġmother": 872,
      "ĠFrench": 873,
      "eg": 874,
      "int": 875,
      "Ġwhole": 876,
      "Ġans": 877,
      "Ġcar": 878,
      "ia": 879,
      "Ġadd": 880,
      "Ġknew": 881,
      "ross": 882,
      "ĠĠĠĠĠĠĠĠ": 883,
      "ks": 884,
      "az": 885,
      "ĠIn": 886,
      "him": 887,
      "Ġplace": 888,
      "ĠAndrew": 889,
      "aught": 890,
      "Ġreg": 891,
      "ations": 892,
      "Ġsil": 893,
      "Ġinst": 894,
      "arly": 895,
      "Ġgoing": 896,
      "Ġturned": 897,
      "Ġapp": 898,
      "Ġtold": 899,
      "Ġclo": 900,
      "Ġsudden": 901,
      "Ġmany": 902,
      "Ġdist": 903,
      "day": 904,
      "ase": 905,
      "Ġherself": 906,
      "der": 907,
      "Ġcried": 908,
      "Ġchild": 909,
      "ister": 910,
      "res": 911,
      "Ġlooking": 912,
      "ict": 913,
      "av": 914,
      "cl": 915,
      "Ġwind": 916,
      "Ġdone": 917,
      "rest": 918,
      "light": 919,
      "Ãº": 920,
      "oub": 921,
      "ostÃ³v": 922,
      "ised": 923,
      "ressed": 924,
      "kov": 925,
      "att": 926,
      "read": 927,
      "ĠThey": 928,
      "Ġseen": 929,
      "Ġthree": 930,
      "ĠThere": 931,
      "ained": 932,
      "su": 933,
      "Ġside": 934,
      "leep": 935,
      "Ġset": 936,
      "Ġcour": 937,
      "ĠWhat": 938,
      "Ġwhale": 939,
      "Ġarm": 940,
      "mer": 941,
      "rincess": 942,
      "Ġthings": 943,
      "Ġmor": 944,
      "Ġrest": 945,
      "ult": 946,
      "ĠNatÃ¡sha": 947,
      "Ġgir": 948,
      "now": 949,
      "arn": 950,
      "Ġthing": 951,
      "by": 952,
      "ject": 953,
      "fully": 954,
      "men": 955,
      "sk": 956,
      "Ġbecause": 957,
      "Ġhome": 958,
      "oved": 959,
      "ix": 960,
      "ower": 961,
      "ined": 962,
      "Ġchan": 963,
      "ating": 964,
      "Ġfind": 965,
      "ince": 966,
      "Ġlight": 967,
      "Ã³n": 968,
      "atch": 969,
      "aid": 970,
      "vent": 971,
      "Ġgener": 972,
      "cept": 973,
      "....": 974,
      "Ġsur": 975,
      "amp": 976,
      "Ġmyself": 977,
      "Ġdra": 978,
      "ute": 979,
      "imp": 980,
      "ovna": 981,
      "ser": 982,
      "Ġint": 983,
      "Ġvoice": 984,
      "ĠâĢĺ": 985,
      "had": 986,
      "Ġcle": 987,
      "Ġstood": 988,
      "ited": 989,
      "mb": 990,
      "Ġfar": 991,
      "Ġlo": 992,
      "vers": 993,
      "Ġgive": 994,
      "nikov": 995,
      "Ġbelie": 996,
      "ond": 997,
      "pr": 998,
      "Ġsupp": 999,
      "Ġanything": 1000,
      "aring": 1001,
      "Ġwords": 1002,
      "Ġhard": 1003,
      "range": 1004,
      "ĠGod": 1005,
      "Ġboy": 1006,
      "Ġhelp": 1007,
      "ors": 1008,
      "Ġread": 1009,
      "Ġche": 1010,
      "aken": 1011,
      "Ġreturn": 1012,
      "Ġstr": 1013,
      "aw": 1014,
      "Ġac": 1015,
      "Ġkind": 1016,
      "unt": 1017,
      "fect": 1018,
      "Ġoffic": 1019,
      "Ġappe": 1020,
      "ither": 1021,
      "ĠWe": 1022,
      "Ġcor": 1023,
      "Ġran": 1024,
      "Ġboth": 1025,
      "fort": 1026,
      "air": 1027,
      "Ġconf": 1028,
      "ual": 1029,
      "ail": 1030,
      "ussi": 1031,
      "ya": 1032,
      "Ġdoes": 1033,
      "Ġbetter": 1034,
      "No": 1035,
      "ten": 1036,
      "Ġmin": 1037,
      "sel": 1038,
      "entle": 1039,
      "ssible": 1040,
      "Ġwork": 1041,
      "rying": 1042,
      "Ġhalf": 1043,
      "ial": 1044,
      "Ġwhom": 1045,
      "iv": 1046,
      "Ġtill": 1047,
      "Ġfew": 1048,
      "Ġ\"": 1049,
      "Ġspo": 1050,
      "Ġpers": 1051,
      "Ġgave": 1052,
      "Ġsuddenly": 1053,
      "iet": 1054,
      "Ġocc": 1055,
      "ron": 1056,
      "Ġsub": 1057,
      "ĠRostÃ³v": 1058,
      "owed": 1059,
      "ho": 1060,
      "Ġ*": 1061,
      "wards": 1062,
      "ired": 1063,
      "its": 1064,
      "gether": 1065,
      "oud": 1066,
      "olnikov": 1067,
      "Ġquest": 1068,
      "askolnikov": 1069,
      "Ġca": 1070,
      "pos": 1071,
      "Ġbus": 1072,
      "Ġhaving": 1073,
      "Ġunderstand": 1074,
      "Ġfam": 1075,
      "Oh": 1076,
      "Ġcare": 1077,
      "Ġgi": 1078,
      "ense": 1079,
      "arge": 1080,
      "ering": 1081,
      "liz": 1082,
      "kh": 1083,
      "she": 1084,
      "ĠAn": 1085,
      "ins": 1086,
      "Well": 1087,
      "lic": 1088,
      "und": 1089,
      "ief": 1090,
      "Ġmatter": 1091,
      "Ġwal": 1092,
      "Ġdif": 1093,
      "Ġletter": 1094,
      "no": 1095,
      "Ġalmost": 1096,
      "haps": 1097,
      "ical": 1098,
      "Ġter": 1099,
      "Ġcertain": 1100,
      "ows": 1101,
      "Ġinte": 1102,
      "ason": 1103,
      "ween": 1104,
      "abeth": 1105,
      "ÃŃs": 1106,
      "lizabeth": 1107,
      "cow": 1108,
      "ready": 1109,
      "Ġmorning": 1110,
      "iting": 1111,
      "Ġworld": 1112,
      "Ġkeep": 1113,
      "ible": 1114,
      "Ġsister": 1115,
      "Ġlau": 1116,
      "ately": 1117,
      "Ġpoor": 1118,
      "Ġwhy": 1119,
      "Ġsw": 1120,
      "Ġref": 1121,
      "rov": 1122,
      "oscow": 1123,
      "which": 1124,
      "Ġbro": 1125,
      "nded": 1126,
      "any": 1127,
      "ĠMary": 1128,
      "reet": 1129,
      "Ġgu": 1130,
      "ash": 1131,
      "cei": 1132,
      "Ġmean": 1133,
      "ĠRussi": 1134,
      "ken": 1135,
      "Ġstand": 1136,
      "sp": 1137,
      "Ġfollow": 1138,
      "Ġwoman": 1139,
      "icul": 1140,
      "Ġrel": 1141,
      "hind": 1142,
      "Ġhour": 1143,
      "Ġwar": 1144,
      "ention": 1145,
      "Ġdec": 1146,
      "lied": 1147,
      "Ġlay": 1148,
      "ember": 1149,
      "ying": 1150,
      "fter": 1151,
      "ev": 1152,
      "mper": 1153,
      "ream": 1154,
      "head": 1155,
      "gr": 1156,
      "Ġcr": 1157,
      "Ġ1": 1158,
      "Ġexc": 1159,
      "used": 1160,
      "Ġpresent": 1161,
      "Ġaw": 1162,
      "Ġgeneral": 1163,
      "Ġcur": 1164,
      "Ġpur": 1165,
      "Ġopen": 1166,
      "cing": 1167,
      "Ġagainst": 1168,
      "itting": 1169,
      "gg": 1170,
      "Ġair": 1171,
      "Ġneed": 1172,
      "iled": 1173,
      "ĠWhen": 1174,
      "ured": 1175,
      "Ġgentle": 1176,
      "ĠIf": 1177,
      "ĠLa": 1178,
      "Ġhear": 1179,
      "ĠMrs": 1180,
      "Ġexpress": 1181,
      "ison": 1182,
      "Ġlist": 1183,
      "ĠHis": 1184,
      "ĠMiss": 1185,
      "Ġdark": 1186,
      "iment": 1187,
      "ĠPet": 1188,
      "Ġeverything": 1189,
      "Ġspeak": 1190,
      "ime": 1191,
      "inu": 1192,
      "ĠThat": 1193,
      "Ġeach": 1194,
      "cted": 1195,
      "Ġvis": 1196,
      "xt": 1197,
      "selves": 1198,
      "ery": 1199,
      "Ġsmall": 1200,
      "Ġsun": 1201,
      "ures": 1202,
      "Ġhope": 1203,
      "hab": 1204,
      "...âĢĿ": 1205,
      "Ġamong": 1206,
      "Ġste": 1207,
      "ool": 1208,
      "Ġsound": 1209,
      "Ġinter": 1210,
      "ĠX": 1211,
      ",--": 1212,
      "Ġsort": 1213,
      "Ġinde": 1214,
      "Ġwhite": 1215,
      "Ġbetween": 1216,
      "In": 1217,
      "II": 1218,
      "cious": 1219,
      "Ġbest": 1220,
      "itch": 1221,
      "ati": 1222,
      "imes": 1223,
      "Ġgone": 1224,
      "body": 1225,
      "Ġship": 1226,
      "Ġnat": 1227,
      "Ġmon": 1228,
      "ĠMoscow": 1229,
      "Ġalone": 1230,
      "har": 1231,
      "ĠThis": 1232,
      "Ġwhe": 1233,
      "mperor": 1234,
      "Ġfore": 1235,
      "Ġel": 1236,
      "olas": 1237,
      "?\"": 1238,
      "Ġhum": 1239,
      "ĠTom": 1240,
      "ĠMar": 1241,
      "icholas": 1242,
      "Ġwo": 1243,
      "Ġdro": 1244,
      "Ġfull": 1245,
      "bed": 1246,
      "ides": 1247,
      "uring": 1248,
      "ĠThen": 1249,
      "ushed": 1250,
      "Ġarmy": 1251,
      "That": 1252,
      "Ġadv": 1253,
      "rave": 1254,
      "tered": 1255,
      "Ġcalled": 1256,
      "Ġsleep": 1257,
      "Ġsince": 1258,
      "Ġcommand": 1259,
      "Ġcourse": 1260,
      "Ġind": 1261,
      "Ġalso": 1262,
      "ably": 1263,
      "Ġsmile": 1264,
      "She": 1265,
      "pl": 1266,
      "ina": 1267,
      "pole": 1268,
      "Ġenough": 1269,
      "aut": 1270,
      "ĠMeg": 1271,
      "ank": 1272,
      "Ġbed": 1273,
      "irc": 1274,
      "Ġwon": 1275,
      "Ġless": 1276,
      "Ġalready": 1277,
      "urie": 1278,
      "Ġpassed": 1279,
      "Ġwife": 1280,
      "ĠAs": 1281,
      "Ġfeeling": 1282,
      "Ġevid": 1283,
      "apole": 1284,
      "Ġass": 1285,
      "lack": 1286,
      "Ġbelieve": 1287,
      "Ġstrange": 1288,
      "ctor": 1289,
      "where": 1290,
      "ern": 1291,
      "orry": 1292,
      "apoleon": 1293,
      "Ġsent": 1294,
      "ield": 1295,
      "Ġsto": 1296,
      "Ġshout": 1297,
      "oney": 1298,
      "Ġdays": 1299,
      "orrow": 1300,
      "Ġwish": 1301,
      "ĠAmy": 1302,
      "wered": 1303,
      "Ġes": 1304,
      "Ġbehind": 1305,
      "Ġtaken": 1306,
      "Ġrun": 1307,
      "Ġsl": 1308,
      "Ġinv": 1309,
      "like": 1310,
      "Ġothers": 1311,
      "aughter": 1312,
      "Ġalong": 1313,
      "There": 1314,
      "Ġhappy": 1315,
      "ian": 1316,
      "ĠFor": 1317,
      "Ġact": 1318,
      "Ġins": 1319,
      "Ġfellow": 1320,
      "ĠLu": 1321,
      "Ġsk": 1322,
      "Ġsou": 1323,
      "ĠSo": 1324,
      "Ġhur": 1325,
      "Ġask": 1326,
      "Ġsold": 1327,
      "Ġyears": 1328,
      "Ġtable": 1329,
      "Ġfire": 1330,
      "Ġrather": 1331,
      "what": 1332,
      "rent": 1333,
      "ace": 1334,
      "Ġinterest": 1335,
      "br": 1336,
      "ump": 1337,
      "ĠDo": 1338,
      "cond": 1339,
      "Ġfre": 1340,
      "ĠEmperor": 1341,
      "Ġreally": 1342,
      "Ġsure": 1343,
      "ĠĠĠĠĠĠ": 1344,
      "ingly": 1345,
      "Ġsea": 1346,
      "Ġfin": 1347,
      "Ġhold": 1348,
      "ane": 1349,
      "oun": 1350,
      "Ġdeath": 1351,
      "ached": 1352,
      "Ġjo": 1353,
      "Ġbrought": 1354,
      "ceived": 1355,
      "Ġide": 1356,
      "Ġtru": 1357,
      "ĠAt": 1358,
      "wer": 1359,
      "have": 1360,
      "Ġhon": 1361,
      "Ġhat": 1362,
      "there": 1363,
      "ĠRaskolnikov": 1364,
      "Ġdire": 1365,
      "Ġcannot": 1366,
      "band": 1367,
      "Ġquick": 1368,
      "do": 1369,
      "land": 1370,
      "cri": 1371,
      "Ġem": 1372,
      "aint": 1373,
      "ingle": 1374,
      "owing": 1375,
      "Ġbre": 1376,
      "fl": 1377,
      "Ġsir": 1378,
      "ĠOn": 1379,
      "oubt": 1380,
      "Ġquestion": 1381,
      "hin": 1382,
      "Ġyes": 1383,
      "Ġtalk": 1384,
      "Ġreplied": 1385,
      "Ġtre": 1386,
      "Ġswe": 1387,
      "ung": 1388,
      "Ġnear": 1389,
      "Ġfear": 1390,
      "Ġleave": 1391,
      "Ġill": 1392,
      "Ġexpect": 1393,
      "Ġcontinu": 1394,
      "Ġtogether": 1395,
      "Ġhigh": 1396,
      "Ġadded": 1397,
      "Ġcoming": 1398,
      "lock": 1399,
      "Ġnext": 1400,
      "Ġtimes": 1401,
      "Ãºz": 1402,
      "from": 1403,
      "ĠElizabeth": 1404,
      "Ġhowever": 1405,
      "Ġanswered": 1406,
      "wing": 1407,
      "Ġnor": 1408,
      "night": 1409,
      "Ġir": 1410,
      "Ġname": 1411,
      "Ġstep": 1412,
      "Ġorder": 1413,
      "Ġfact": 1414,
      "itu": 1415,
      "Ġmis": 1416,
      "look": 1417,
      "utÃºz": 1418,
      "utÃºzov": 1419,
      "Ġgirl": 1420,
      "ĠCount": 1421,
      "ĠSe": 1422,
      "ang": 1423,
      "room": 1424,
      "Why": 1425,
      "ptain": 1426,
      "attle": 1427,
      "ats": 1428,
      "Ġuse": 1429,
      "riage": 1430,
      "usband": 1431,
      "ility": 1432,
      "ants": 1433,
      "enn": 1434,
      "aster": 1435,
      "ĠHow": 1436,
      "iously": 1437,
      "Ġbusiness": 1438,
      "When": 1439,
      "ĠTh": 1440,
      "Ġdet": 1441,
      "ses": 1442,
      "Ġtried": 1443,
      "Ġfamily": 1444,
      "ĠLaurie": 1445,
      "Ġri": 1446,
      "illed": 1447,
      "ĠNicholas": 1448,
      "gth": 1449,
      "Ġbes": 1450,
      "raid": 1451,
      "Ġdead": 1452,
      "Ġinc": 1453,
      "this": 1454,
      "rowd": 1455,
      "Ġstrong": 1456,
      "ef": 1457,
      "ird": 1458,
      "ming": 1459,
      "ock": 1460,
      "Ġwater": 1461,
      "ider": 1462,
      "How": 1463,
      "ĠNapoleon": 1464,
      "Ġsaying": 1465,
      ":--": 1466,
      "Ġwindow": 1467,
      "Ġsign": 1468,
      "Ġmoney": 1469,
      "Ġstru": 1470,
      "mes": 1471,
      "Ġcase": 1472,
      "Ġabs": 1473,
      "uth": 1474,
      "bo": 1475,
      "Ġindeed": 1476,
      "They": 1477,
      "nding": 1478,
      "Ġdan": 1479,
      "mon": 1480,
      "og": 1481,
      "Ġcap": 1482,
      "Ġlady": 1483,
      "Ġdev": 1484,
      "Ġear": 1485,
      "ening": 1486,
      "use": 1487,
      "ĠBe": 1488,
      "ousand": 1489,
      "Ġwhether": 1490,
      "Ġoften": 1491,
      "Ġlad": 1492,
      "Ġperhaps": 1493,
      "Ġsimp": 1494,
      "ustr": 1495,
      "Ġlive": 1496,
      "arted": 1497,
      "du": 1498,
      "Ġhair": 1499,
      "ided": 1500,
      "Ġreason": 1501,
      "Ġquiet": 1502,
      "were": 1503,
      "Ġfall": 1504,
      "Ġspoke": 1505,
      "Ġsec": 1506,
      "Ġplay": 1507,
      "Ġshort": 1508,
      "We": 1509,
      "lex": 1510,
      "Ġclose": 1511,
      "sed": 1512,
      "Ġrec": 1513,
      "Ġreal": 1514,
      "ards": 1515,
      "Ġevening": 1516,
      "Ġpower": 1517,
      "ĠAl": 1518,
      "Ġperson": 1519,
      "Ġlaugh": 1520,
      "equ": 1521,
      "Ġfour": 1522,
      "Ġcirc": 1523,
      "Ġcond": 1524,
      "Ġmeet": 1525,
      "Ġprom": 1526,
      "ferent": 1527,
      "ront": 1528,
      "oll": 1529,
      "ĠNo": 1530,
      "Ġused": 1531,
      "Ġbrother": 1532,
      "ceed": 1533,
      "aving": 1534,
      "iling": 1535,
      "Ġpos": 1536,
      "old": 1537,
      "idd": 1538,
      "Ġwhis": 1539,
      "they": 1540,
      "Ġhusband": 1541,
      ".âĢĻ": 1542,
      "omen": 1543,
      "gs": 1544,
      "als": 1545,
      "On": 1546,
      "Ġlost": 1547,
      "pping": 1548,
      "ounded": 1549,
      "Ġdisc": 1550,
      "ĠAhab": 1551,
      "them": 1552,
      "pro": 1553,
      "rible": 1554,
      "ific": 1555,
      "ctions": 1556,
      "under": 1557,
      "ĠQ": 1558,
      "Ġyourself": 1559,
      "off": 1560,
      "Ġkept": 1561,
      "Ġblack": 1562,
      "overed": 1563,
      "Ġserv": 1564,
      "Ġsurpr": 1565,
      "ances": 1566,
      "Ġready": 1567,
      "ging": 1568,
      "Ġdoubt": 1569,
      "Ġprison": 1570,
      "ott": 1571,
      "ising": 1572,
      "peri": 1573,
      "Ġglad": 1574,
      "who": 1575,
      "olmes": 1576,
      "Ġbegin": 1577,
      "ski": 1578,
      "Mr": 1579,
      "orm": 1580,
      "emy": 1581,
      "empt": 1582,
      "iers": 1583,
      "Ġcrowd": 1584,
      "Ġpoint": 1585,
      "Ġbeaut": 1586,
      "antly": 1587,
      "Ġelse": 1588,
      "ments": 1589,
      "Ġgiven": 1590,
      "ĠY": 1591,
      "Ġdri": 1592,
      "Ġtri": 1593,
      "Ġbook": 1594,
      "Ġadm": 1595,
      "ug": 1596,
      "khov": 1597,
      "ĠPrincess": 1598,
      "Ã³nya": 1599,
      "uff": 1600,
      "Ġred": 1601,
      "Ġforg": 1602,
      "Ġang": 1603,
      "Ġanswer": 1604,
      "oke": 1605,
      "Ġpol": 1606,
      "ĠAll": 1607,
      "Ġofficer": 1608,
      "bur": 1609,
      "Ġrepe": 1610,
      "Ġstra": 1611,
      "Ġobser": 1612,
      "enty": 1613,
      "ught": 1614,
      "Ġfell": 1615,
      "Ġcold": 1616,
      "Ġtou": 1617,
      "ĠMy": 1618,
      "Ġfeet": 1619,
      "Ġspir": 1620,
      "run": 1621,
      "let": 1622,
      "how": 1623,
      "ually": 1624,
      "Ġbur": 1625,
      "iew": 1626,
      "Ġleast": 1627,
      "Ġarri": 1628,
      "Ġhist": 1629,
      "ates": 1630,
      "ctly": 1631,
      "Ġafraid": 1632,
      "If": 1633,
      "Ġmove": 1634,
      "enÃŃs": 1635,
      "Ġdep": 1636,
      "Ġdeep": 1637,
      "Ġwhose": 1638,
      "ĠRussian": 1639,
      "Ġtrue": 1640,
      "wor": 1641,
      "Ġremember": 1642,
      "ĠKutÃºzov": 1643,
      "Ġexpl": 1644,
      "enÃŃsov": 1645,
      "arcy": 1646,
      "ster": 1647,
      "ents": 1648,
      "rig": 1649,
      "Ġroad": 1650,
      "over": 1651,
      "would": 1652,
      "Ġsight": 1653,
      "Ġfront": 1654,
      "Ġcal": 1655,
      "Ġreco": 1656,
      "Ġwanted": 1657,
      "cul": 1658,
      "Ġtaking": 1659,
      "Ġexpression": 1660,
      "My": 1661,
      "ĠBeth": 1662,
      "pose": 1663,
      "Ġreturned": 1664,
      "ĠĠĠĠĠĠĠĠĠĠĠĠĠĠĠĠ": 1665,
      "Ġchildren": 1666,
      "Ġsoul": 1667,
      "Ġsitting": 1668,
      "Ġopp": 1669,
      "Ġbad": 1670,
      "Now": 1671,
      "Ġmet": 1672,
      "Ġheld": 1673,
      "iced": 1674,
      "will": 1675,
      "Ġcross": 1676,
      "ressing": 1677,
      "fir": 1678,
      "ror": 1679,
      "Ġdin": 1680,
      "Ġlarge": 1681,
      "Ġwatch": 1682,
      "some": 1683,
      "Ġson": 1684,
      "Ġmer": 1685,
      "llustr": 1686,
      "Ġland": 1687,
      "Ġmad": 1688,
      "Ġcol": 1689,
      "Ġstreet": 1690,
      "âĢľâĢĺ": 1691,
      "Ġeas": 1692,
      "Ġidea": 1693,
      "Ġmist": 1694,
      "veral": 1695,
      "Ġchar": 1696,
      "undred": 1697,
      "cons": 1698,
      "ches": 1699,
      "vo": 1700,
      "Ġpain": 1701,
      "Ġopened": 1702,
      "Ġhorse": 1703,
      "uss": 1704,
      "van": 1705,
      "Ġthousand": 1706,
      "ets": 1707,
      "Ġsecond": 1708,
      "Ġwonder": 1709,
      "though": 1710,
      "Ġstopped": 1711,
      "ĠHolmes": 1712,
      "Ġfoot": 1713,
      "Ġknown": 1714,
      "Ġart": 1715,
      "._": 1716,
      "As": 1717,
      "ey": 1718,
      "cher": 1719,
      "ages": 1720,
      "Ġdidn": 1721,
      "Ġpossible": 1722,
      "Ġbecame": 1723,
      "onia": 1724,
      "Ġfur": 1725,
      "ety": 1726,
      "ote": 1727,
      "akes": 1728,
      "Ġthemselves": 1729,
      "Ġrose": 1730,
      "app": 1731,
      "ush": 1732,
      "possible": 1733,
      "Ġvisit": 1734,
      "ters": 1735,
      "umb": 1736,
      "ĠNow": 1737,
      "Ġbattle": 1738,
      "Ġblood": 1739,
      "Ġrespect": 1740,
      "cle": 1741,
      "ene": 1742,
      "Ġmanner": 1743,
      "Ġeye": 1744,
      "This": 1745,
      "ouble": 1746,
      "ively": 1747,
      "fess": 1748,
      "Ġsuff": 1749,
      "Ġstay": 1750,
      "par": 1751,
      "Ġtra": 1752,
      "ĠDarcy": 1753,
      "ney": 1754,
      "Ġchief": 1755,
      "'m": 1756,
      "ek": 1757,
      "Ġarms": 1758,
      "Pierre": 1759,
      "utes": 1760,
      "wo": 1761,
      "Ġimag": 1762,
      "ring": 1763,
      "rely": 1764,
      "outh": 1765,
      "Ġreceived": 1766,
      "Ġappro": 1767,
      "iar": 1768,
      "Ġstud": 1769,
      "Ġext": 1770,
      "go": 1771,
      "Ġitself": 1772,
      "irt": 1773,
      "ubb": 1774,
      "when": 1775,
      "Ġfree": 1776,
      "Illustr": 1777,
      "come": 1778,
      "dis": 1779,
      "Ġtowards": 1780,
      "ching": 1781,
      "ĠBenn": 1782,
      "hand": 1783,
      "Ġmoved": 1784,
      "Ġkiss": 1785,
      "airs": 1786,
      "bly": 1787,
      "Ġut": 1788,
      "Ġevidently": 1789,
      "Ġtown": 1790,
      "Ġwithin": 1791,
      "chan": 1792,
      "eas": 1793,
      "nat": 1794,
      "itude": 1795,
      "ead": 1796,
      "Ġwood": 1797,
      "Ġcomfort": 1798,
      "Ġtalking": 1799,
      "Ġgirls": 1800,
      "inted": 1801,
      "Ġbit": 1802,
      "Ġlow": 1803,
      "stood": 1804,
      "Ġdoing": 1805,
      "Ġsometimes": 1806,
      "versation": 1807,
      "Ġposition": 1808,
      "Ġtry": 1809,
      "Ġdaughter": 1810,
      "Ġentered": 1811,
      "Ġunt": 1812,
      "Ġminute": 1813,
      "Ġjoy": 1814,
      "Ġsilence": 1815,
      "Ġaround": 1816,
      "Ġpret": 1817,
      "ural": 1818,
      "Ġturning": 1819,
      "Ġfan": 1820,
      "ĠMad": 1821,
      "oving": 1822,
      "Ġsatis": 1823,
      "anced": 1824,
      "could": 1825,
      "ms": 1826,
      "peci": 1827,
      "Ġconsider": 1828,
      "Illustration": 1829,
      "'ll": 1830,
      "Ġbreat": 1831,
      "ices": 1832,
      "ship": 1833,
      "Ġconv": 1834,
      "Ġhappened": 1835,
      "ized": 1836,
      "Ġstanding": 1837,
      "Then": 1838,
      "Ġbody": 1839,
      "Ġmur": 1840,
      "Ġmil": 1841,
      "Ġlate": 1842,
      "Ġseveral": 1843,
      "Ġshouted": 1844,
      "rac": 1845,
      "Ġshow": 1846,
      "Ġtran": 1847,
      "Ġsad": 1848,
      "Ġseems": 1849,
      "ĠOh": 1850,
      "Ġtrying": 1851,
      "Ġmaking": 1852,
      "orn": 1853,
      "Ġheav": 1854,
      "Ġinqu": 1855,
      "Ġdest": 1856,
      "Ġparticul": 1857,
      "At": 1858,
      "Ġeither": 1859,
      "ĠTo": 1860,
      "ities": 1861,
      "Ġpast": 1862,
      "ots": 1863,
      "Ġvill": 1864,
      "ale": 1865,
      "Ġfine": 1866,
      "Ġinf": 1867,
      "Ġforward": 1868,
      "ĠHer": 1869,
      "Ġcontinued": 1870,
      "aven": 1871,
      "pre": 1872,
      "Ġduring": 1873,
      "Ġlips": 1874,
      "medi": 1875,
      "),": 1876,
      "Ġseeing": 1877,
      "Ġfollowed": 1878,
      "Not": 1879,
      "your": 1880,
      "ĠU": 1881,
      "Ġflo": 1882,
      "Ġanx": 1883,
      "ĠBor": 1884,
      "rence": 1885,
      "azum": 1886,
      "ixed": 1887,
      "So": 1888,
      "side": 1889,
      "Ġwha": 1890,
      "Ġwomen": 1891,
      "Ġdread": 1892,
      "ĠWhy": 1893,
      "itted": 1894,
      "Ġdiff": 1895,
      ",âĢĻ": 1896,
      "ler": 1897,
      "Ġtears": 1898,
      "Ġwalked": 1899,
      "Ġfright": 1900,
      "iful": 1901,
      "ously": 1902,
      "Ġremained": 1903,
      "cha": 1904,
      "ihin": 1905,
      "Ġhuman": 1906,
      "ye": 1907,
      "lled": 1908,
      "set": 1909,
      "rink": 1910,
      "rupt": 1911,
      "Ġhorses": 1912,
      "Ġsoft": 1913,
      "ĠLorry": 1914,
      "azumihin": 1915,
      "Ġhundred": 1916,
      "ĠMarch": 1917,
      "Ġten": 1918,
      "ĠSÃ³nya": 1919,
      "Ġground": 1920,
      "Ġresol": 1921,
      "fair": 1922,
      "Ġdream": 1923,
      "otion": 1924,
      "Ġsilent": 1925,
      "ĠâĢĻ": 1926,
      "Ġconc": 1927,
      "Ġmus": 1928,
      "ĠDenÃŃsov": 1929,
      "ĠEng": 1930,
      "joy": 1931,
      "Ġtone": 1932,
      "their": 1933,
      "Ġdut": 1934,
      "Ġdesp": 1935,
      "Ġaccount": 1936,
      "ĠAlice": 1937,
      "can": 1938,
      "rem": 1939,
      "Ġhast": 1940,
      "ically": 1941,
      "Ġeng": 1942,
      "Ġcountry": 1943,
      "Ġfriends": 1944,
      "Ġgentleman": 1945,
      "!\"": 1946,
      "Ġsy": 1947,
      "Ġmo": 1948,
      "Ġsum": 1949,
      "ract": 1950,
      "Ġboat": 1951,
      "Ġcountess": 1952,
      "ka": 1953,
      "ains": 1954,
      "Ġabove": 1955,
      "Ġlearn": 1956,
      "Ġbring": 1957,
      "burg": 1958,
      "ination": 1959,
      "Ġru": 1960,
      "Ġsays": 1961,
      "Ġve": 1962,
      "aged": 1963,
      "Ġnecess": 1964,
      "laim": 1965,
      "ped": 1966,
      "Ġimport": 1967,
      "Ġappear": 1968,
      "Ġsoldiers": 1969,
      "Ġtro": 1970,
      "ouni": 1971,
      "Ġbright": 1972,
      "Ġstory": 1973,
      "lokhov": 1974,
      "Ã³lokhov": 1975,
      "Ġclear": 1976,
      "Ġhardly": 1977,
      "pecially": 1978,
      "Do": 1979,
      "asion": 1980,
      "Ġprince": 1981,
      "ident": 1982,
      "Ġevent": 1983,
      "said": 1984,
      "Ġstate": 1985,
      "Ġsubject": 1986,
      "Ġstruck": 1987,
      "Ġago": 1988,
      "Ġable": 1989,
      "oura": 1990,
      "athan": 1991,
      "Ġchair": 1992,
      "Ġappeared": 1993,
      "che": 1994,
      "Ġord": 1995,
      "ops": 1996,
      "Ġpleasure": 1997,
      "ĠPetrov": 1998,
      "ounia": 1999,
      "sm": 2000,
      "alth": 2001,
      "ĠSonia": 2002,
      "Ġdelight": 2003,
      "ement": 2004,
      "Ġ18": 2005,
      "ec": 2006,
      "Ġshar": 2007,
      "Ġdifferent": 2008,
      "Ġdinner": 2009,
      "every": 2010,
      "tr": 2011,
      "Ġpretty": 2012,
      "racter": 2013,
      "une": 2014,
      "Ġlonger": 2015,
      "ĠOne": 2016,
      "fied": 2017,
      "val": 2018,
      "ishing": 2019,
      "Ġcut": 2020,
      "Ġcreat": 2021,
      "lete": 2022,
      "ĠAr": 2023,
      "ĠPro": 2024,
      "Ġgetting": 2025,
      "Ġrepeated": 2026,
      "Ġwall": 2027,
      "happ": 2028,
      "Ġstraight": 2029,
      "more": 2030,
      "cell": 2031,
      "Ġmeans": 2032,
      "hn": 2033,
      "ee": 2034,
      "pleas": 2035,
      "ts": 2036,
      "Ġprincess": 2037,
      "Ġthinking": 2038,
      "Ġcorner": 2039,
      "ingley": 2040,
      "lov": 2041,
      "oss": 2042,
      "rown": 2043,
      "Ġdrew": 2044,
      "Ġlif": 2045,
      "Ġlaw": 2046,
      "form": 2047,
      "eness": 2048,
      "Ġcause": 2049,
      "Ġself": 2050,
      "ĠWell": 2051,
      "Ġenemy": 2052,
      "Ġsix": 2053,
      "ular": 2054,
      "Ġdrawing": 2055,
      "Ġminutes": 2056,
      "Ġsens": 2057,
      "Ġregard": 2058,
      "Ġterrible": 2059,
      "Ġfun": 2060,
      "ution": 2061,
      "Ġfort": 2062,
      "Ġusual": 2063,
      "Ġinstant": 2064,
      "Ġchange": 2065,
      "Ġbeside": 2066,
      "mp": 2067,
      "pid": 2068,
      "Ġought": 2069,
      "Ġgre": 2070,
      "Ġsoci": 2071,
      "Ġaffair": 2072,
      "Ġest": 2073,
      "Ġfing": 2074,
      "Ġcontr": 2075,
      "ĠQue": 2076,
      "ĠBennet": 2077,
      "Ġsqu": 2078,
      "Ġtor": 2079,
      "Ġcry": 2080,
      "Ġhop": 2081,
      "Ġgaz": 2082,
      "pered": 2083,
      "been": 2084,
      "Ġsweet": 2085,
      "time": 2086,
      "Ġball": 2087,
      "Ġdress": 2088,
      "iding": 2089,
      "lish": 2090,
      "Ġbu": 2091,
      "Ġline": 2092,
      "Ġconversation": 2093,
      "ersburg": 2094,
      "Ġspeaking": 2095,
      "aptain": 2096,
      "str": 2097,
      "dered": 2098,
      "vanovna": 2099,
      "ffect": 2100,
      "lovna": 2101,
      "Ġbar": 2102,
      "Ġcra": 2103,
      "Ġwild": 2104,
      "Ġmut": 2105,
      "ĠWith": 2106,
      "efarge": 2107,
      "Ġdanger": 2108,
      "ining": 2109,
      "usion": 2110,
      "Ġearth": 2111,
      "Ġsecret": 2112,
      "Prince": 2113,
      "before": 2114,
      "Ġpri": 2115,
      "Ġnoticed": 2116,
      "Ġstren": 2117,
      "Ġyear": 2118,
      "Ġregiment": 2119,
      "hr": 2120,
      "Ġdi": 2121,
      "terday": 2122,
      "ils": 2123,
      "ĠRazumihin": 2124,
      "bb": 2125,
      "ze": 2126,
      "Ġsense": 2127,
      "Ġtoward": 2128,
      "Ġdeal": 2129,
      "Ġpray": 2130,
      "Ġquickly": 2131,
      "Ġsle": 2132,
      "ĠHels": 2133,
      "umst": 2134,
      "Ġobject": 2135,
      "Ġmonth": 2136,
      "Ġuntil": 2137,
      "ĠHelsing": 2138,
      "Ġimmedi": 2139,
      "ĠVan": 2140,
      "bl": 2141,
      "Ġacross": 2142,
      "sc": 2143,
      "pend": 2144,
      "Ġfaces": 2145,
      "Ġcertainly": 2146,
      "gl": 2147,
      "Ã¨": 2148,
      "Ġmouth": 2149,
      "Ġquar": 2150,
      "Ġwished": 2151,
      "Ġbig": 2152,
      "Ġfive": 2153,
      "Ġview": 2154,
      "ference": 2155,
      "Ġacqu": 2156,
      "Ah": 2157,
      "kn": 2158,
      "Ġgall": 2159,
      "ssess": 2160,
      "isted": 2161,
      "Ġlead": 2162,
      "perm": 2163,
      "To": 2164,
      "know": 2165,
      "rit": 2166,
      "Ġfig": 2167,
      "Ġlaid": 2168,
      "Ġeff": 2169,
      "Ġforget": 2170,
      "appe": 2171,
      "Ġhappiness": 2172,
      "Ġpale": 2173,
      "Ġesc": 2174,
      "ham": 2175,
      "Ġpull": 2176,
      "Ġele": 2177,
      "Ġemb": 2178,
      "ĠWhale": 2179,
      "posed": 2180,
      "Ġexcept": 2181,
      "Ġbreak": 2182,
      "morrow": 2183,
      "Ġbecome": 2184,
      "Ġnews": 2185,
      "Ġslow": 2186,
      "cked": 2187,
      "arent": 2188,
      "Ġpeace": 2189,
      "Ġsteps": 2190,
      "little": 2191,
      "Ġimpossible": 2192,
      "Ġtwenty": 2193,
      "ma": 2194,
      "Ġform": 2195,
      "Ġvi": 2196,
      "itten": 2197,
      "Ġfav": 2198,
      "Ġsett": 2199,
      "inary": 2200,
      "ager": 2201,
      "well": 2202,
      "tern": 2203,
      "ĠWh": 2204,
      "Ġfair": 2205,
      "lexand": 2206,
      "mand": 2207,
      "Ġplan": 2208,
      "yed": 2209,
      "inion": 2210,
      "Ġgrew": 2211,
      "then": 2212,
      "tend": 2213,
      "bered": 2214,
      "Ġplain": 2215,
      "aff": 2216,
      "somet": 2217,
      "yd": 2218,
      "yond": 2219,
      "Ġfast": 2220,
      "Ġlater": 2221,
      "Ġbear": 2222,
      "Ġstri": 2223,
      "Ġdel": 2224,
      "Ġremark": 2225,
      "Ġthoughts": 2226,
      "Ġhours": 2227,
      "ob": 2228,
      "Ġreached": 2229,
      "Ġformer": 2230,
      "Ġmeant": 2231,
      "ĠBingley": 2232,
      "Ġliving": 2233,
      "Ġanyone": 2234,
      "bour": 2235,
      "Ġsing": 2236,
      "Ġwaiting": 2237,
      "Ġboys": 2238,
      "Ġcommander": 2239,
      "Ġstart": 2240,
      "Ġladies": 2241,
      "All": 2242,
      "NatÃ¡sha": 2243,
      "iece": 2244,
      "Ġprep": 2245,
      "Ġsmiled": 2246,
      "Ġcharacter": 2247,
      "Ġwait": 2248,
      "long": 2249,
      "ph": 2250,
      "ones": 2251,
      "Ġbox": 2252,
      "ledge": 2253,
      "Ġblue": 2254,
      "Ġattention": 2255,
      "Ġslight": 2256,
      "Ġgra": 2257,
      "iff": 2258,
      "Ġproper": 2259,
      "Ġeffect": 2260,
      "Ġvar": 2261,
      "ĠDounia": 2262,
      "again": 2263,
      "tya": 2264,
      "Ġreply": 2265,
      "aÃ": 2266,
      "Ġthird": 2267,
      "Ã¡n": 2268,
      "Ġpaper": 2269,
      "Ġcalm": 2270,
      "ole": 2271,
      "Ġweak": 2272,
      "ccess": 2273,
      "Ġcomplete": 2274,
      "Ġfeelings": 2275,
      "ented": 2276,
      "loom": 2277,
      "fered": 2278,
      "fection": 2279,
      "Ã©tya": 2280,
      "Ġofficers": 2281,
      "ĠLucy": 2282,
      "spe": 2283,
      "ĠZ": 2284,
      "oup": 2285,
      "Ġfixed": 2286,
      "Ġled": 2287,
      "should": 2288,
      "Ġsuppose": 2289,
      "Ġoccur": 2290,
      "Ġfresh": 2291,
      "eks": 2292,
      "Ġenjoy": 2293,
      "For": 2294,
      "count": 2295,
      "inter": 2296,
      "Ġshowed": 2297,
      "Ġworth": 2298,
      "ĠJohn": 2299,
      "Ġloved": 2300,
      "Ġpar": 2301,
      "ĠIvanovna": 2302,
      "Ġexperi": 2303,
      "els": 2304,
      "Ġtruth": 2305,
      "Th": 2306,
      "ghed": 2307,
      "uc": 2308,
      "Ġthou": 2309,
      "Ġtherefore": 2310,
      "Ġcomes": 2311,
      "ÃŃn": 2312,
      "Ġcarriage": 2313,
      "Ġduty": 2314,
      "ton": 2315,
      "into": 2316,
      "asÃŃ": 2317,
      "Ġremain": 2318,
      "Ġremem": 2319,
      "Ġperfect": 2320,
      "Ġplease": 2321,
      "Ġcarried": 2322,
      "des": 2323,
      "ines": 2324,
      "....âĢĿ": 2325,
      "Ġrapid": 2326,
      "fessor": 2327,
      "ray": 2328,
      "Ġaction": 2329,
      "Ġmem": 2330,
      "pected": 2331,
      "Ġwrong": 2332,
      "aÃ¯": 2333,
      "Ġwat": 2334,
      "Ġequ": 2335,
      "oose": 2336,
      "ĠDefarge": 2337,
      "Ġwrite": 2338,
      "ĠPetersburg": 2339,
      "Ġed": 2340,
      "Ġsn": 2341,
      "Ġburn": 2342,
      "Ġsole": 2343,
      "ilt": 2344,
      "Ġknows": 2345,
      "Ġscar": 2346,
      "Ġnature": 2347,
      "bit": 2348,
      "clock": 2349,
      "pla": 2350,
      "Ġexcell": 2351,
      "while": 2352,
      "ĠAnna": 2353,
      "Ġbroken": 2354,
      "Ġespecially": 2355,
      "ital": 2356,
      "Ġthin": 2357,
      "Ġspite": 2358,
      "cont": 2359,
      "Ġsimply": 2360,
      "Ġforgot": 2361,
      "did": 2362,
      "umber": 2363,
      "ĠJane": 2364,
      "Ġglass": 2365,
      "Ġspirit": 2366,
      "ape": 2367,
      "after": 2368,
      "gged": 2369,
      "Ġmaster": 2370,
      "see": 2371,
      "thought": 2372,
      "equeg": 2373,
      "_.": 2374,
      "olk": 2375,
      "Ġunderstood": 2376,
      "Ġwarm": 2377,
      "Ġvillage": 2378,
      "ĠPetrovitch": 2379,
      "Ġeffort": 2380,
      "oured": 2381,
      "af": 2382,
      "Ġmine": 2383,
      "ceive": 2384,
      "vern": 2385,
      "ĠNot": 2386,
      "Ġstrength": 2387,
      "aj": 2388,
      "wise": 2389,
      "erman": 2390,
      "ency": 2391,
      "about": 2392,
      "Ġtrouble": 2393,
      "himself": 2394,
      "Ġoccup": 2395,
      "Ġsurprise": 2396,
      "Ġpost": 2397,
      "Ġbeyond": 2398,
      "Ġfif": 2399,
      "Ġlean": 2400,
      "Ġentire": 2401,
      "Ġimmediately": 2402,
      "mn": 2403,
      "quest": 2404,
      "ĠDÃ³lokhov": 2405,
      "erg": 2406,
      "arb": 2407,
      "ĠDon": 2408,
      "Ġcoll": 2409,
      "Ġheavy": 2410,
      "reg": 2411,
      "seem": 2412,
      "aching": 2413,
      "Ġtroops": 2414,
      "ah": 2415,
      "fast": 2416,
      "Ġprob": 2417,
      "Ġadj": 2418,
      "Ġpleasant": 2419,
      "Ġlistened": 2420,
      "asÃŃli": 2421,
      "cent": 2422,
      "house": 2423,
      "udd": 2424,
      "Ġsit": 2425,
      "ĠLet": 2426,
      "ÃŃt": 2427,
      "father": 2428,
      "Ġmention": 2429,
      "Ġleg": 2430,
      "ression": 2431,
      "Ġcompany": 2432,
      "Ġhurried": 2433,
      "looking": 2434,
      "athe": 2435,
      "ĠJon": 2436,
      "apers": 2437,
      "Ġpeas": 2438,
      "Ġpurpose": 2439,
      "Ġtem": 2440,
      "cks": 2441,
      "arer": 2442,
      "Ġdecided": 2443,
      "Ġnecessary": 2444,
      "Jo": 2445,
      "ners": 2446,
      "Ġmiss": 2447,
      "idge": 2448,
      "Ġnotice": 2449,
      "Ġdef": 2450,
      "Ġoccasion": 2451,
      "Ġlaughed": 2452,
      "_,": 2453,
      "part": 2454,
      "Ã«": 2455,
      "Ġanim": 2456,
      "Ġsol": 2457,
      "Ġtender": 2458,
      "Ġraised": 2459,
      "face": 2460,
      "ĠStubb": 2461,
      "hold": 2462,
      "ĠBorÃŃs": 2463,
      "Ġdie": 2464,
      "ative": 2465,
      "tering": 2466,
      "alled": 2467,
      "onel": 2468,
      "Ġcheer": 2469,
      "With": 2470,
      "aded": 2471,
      "together": 2472,
      "Ġtalked": 2473,
      "Ġyesterday": 2474,
      "known": 2475,
      "bility": 2476,
      "rel": 2477,
      "itation": 2478,
      "Ġdare": 2479,
      "Ġsake": 2480,
      "Ġopinion": 2481,
      "Ġaccom": 2482,
      "Ġchance": 2483,
      "Ġrunning": 2484,
      "only": 2485,
      "Ġpati": 2486,
      "othes": 2487,
      "rill": 2488,
      "Ġmerely": 2489,
      "ĠHere": 2490,
      "Ġgold": 2491,
      "Ġgrand": 2492,
      "comp": 2493,
      "Ġclosed": 2494,
      "Ġfrightened": 2495,
      "bs": 2496,
      "arm": 2497,
      "Ġthus": 2498,
      "irty": 2499,
      "ĠEvery": 2500,
      "Ġfirm": 2501,
      "Ġsharp": 2502,
      "down": 2503,
      "oes": 2504,
      "rance": 2505,
      "erm": 2506,
      "itary": 2507,
      "Ġcamp": 2508,
      "Ġlying": 2509,
      "Ġpay": 2510,
      "ĠIs": 2511,
      "Ġstran": 2512,
      "ustom": 2513,
      "Ġeveryone": 2514,
      "Ġmarried": 2515,
      "Ġcircumst": 2516,
      "iddle": 2517,
      "Ġangry": 2518,
      "act": 2519,
      "even": 2520,
      "sy": 2521,
      "vi": 2522,
      "urch": 2523,
      "ified": 2524,
      "ĠAlexand": 2525,
      "Ġconcl": 2526,
      "ĠLord": 2527,
      "idered": 2528,
      "Ġbeginning": 2529,
      "An": 2530,
      "gu": 2531,
      "cket": 2532,
      "Ã¡v": 2533,
      "Ġtea": 2534,
      "Ġorders": 2535,
      "Ġ'": 2536,
      "icked": 2537,
      "Ġasleep": 2538,
      "Ġnearly": 2539,
      "Ġrode": 2540,
      "Ġcoat": 2541,
      "Ġexpected": 2542,
      "ois": 2543,
      "Ġdesire": 2544,
      "Ġattack": 2545,
      "Ġbeautiful": 2546,
      "Ġsociety": 2547,
      "After": 2548,
      "itions": 2549,
      "ength": 2550,
      "Ġdoctor": 2551,
      "Raskolnikov": 2552,
      "arked": 2553,
      "Ġnice": 2554,
      "Ġund": 2555,
      "ondon": 2556,
      "erable": 2557,
      "owers": 2558,
      "Ġglanced": 2559,
      "ublic": 2560,
      "ashion": 2561,
      "Ġwhispered": 2562,
      "Ġbreath": 2563,
      "Is": 2564,
      "hil": 2565,
      "hood": 2566,
      "vious": 2567,
      "Ġfield": 2568,
      "arch": 2569,
      "Ġpor": 2570,
      "Ġgrave": 2571,
      "Ġreport": 2572,
      "Ġhistor": 2573,
      "icult": 2574,
      "Ġwouldn": 2575,
      "ĠCaptain": 2576,
      "son": 2577,
      "Ġfro": 2578,
      "Ġpict": 2579,
      "Ġeager": 2580,
      "Ġsuccess": 2581,
      "Ġleaving": 2582,
      "ddenly": 2583,
      "Ġrefle": 2584,
      "Ġnatural": 2585,
      "ient": 2586,
      "Ġsick": 2587,
      "Ġsnow": 2588,
      "Ġnone": 2589,
      "ette": 2590,
      "Ġnote": 2591,
      "Ġshook": 2592,
      "Ġhonor": 2593,
      "say": 2594,
      "lling": 2595,
      "Ġsofa": 2596,
      "Ġcaptain": 2597,
      "ĠDoctor": 2598,
      "Ġservice": 2599,
      "laimed": 2600,
      "Don": 2601,
      "kes": 2602,
      "Ġsli": 2603,
      "ashed": 2604,
      "ĠPÃ©tya": 2605,
      "Ġsmiling": 2606,
      "Ġcommon": 2607,
      "Ġlaughing": 2608,
      "something": 2609,
      "Ġremembered": 2610,
      "ians": 2611,
      "Ġmount": 2612,
      "ancing": 2613,
      "Ġthrew": 2614,
      "Ġrushed": 2615,
      "Ġexam": 2616,
      "Ġpossess": 2617,
      "beg": 2618,
      "ĠXX": 2619,
      "Ġrecog": 2620,
      "Ġimportant": 2621,
      "ges": 2622,
      "just": 2623,
      "Ġwine": 2624,
      "atic": 2625,
      "Ġgun": 2626,
      "aterina": 2627,
      "St": 2628,
      "miss": 2629,
      "oot": 2630,
      "Ġfight": 2631,
      "ĠGerman": 2632,
      "new": 2633,
      "ception": 2634,
      "flu": 2635,
      "Ġmovement": 2636,
      "Ġslowly": 2637,
      "ear": 2638,
      "Ġwounded": 2639,
      "chief": 2640,
      "Ġsend": 2641,
      "ames": 2642,
      "ĠHuck": 2643,
      "Ġdeser": 2644,
      "Ġobserved": 2645,
      "Ġarrived": 2646,
      "Ġfurther": 2647,
      "ĠEnglish": 2648,
      "field": 2649,
      "Ġsorry": 2650,
      "Ġcaught": 2651,
      "ĠAfter": 2652,
      "Ġshut": 2653,
      "ize": 2654,
      "Ġinterrupt": 2655,
      "Ġstudy": 2656,
      "Ġbott": 2657,
      "Ġcent": 2658,
      "vel": 2659,
      "Ġsail": 2660,
      "Ġjour": 2661,
      "retched": 2662,
      "Ġpresence": 2663,
      "Ġwhales": 2664,
      "ĠProfessor": 2665,
      "bet": 2666,
      "ĠYes": 2667,
      "Ġheaven": 2668,
      "cely": 2669,
      "Ġparty": 2670,
      "Ġcompan": 2671,
      "vidrig": 2672,
      "Ġdistance": 2673,
      "Ġcourt": 2674,
      "Ġgiving": 2675,
      "Ġwalk": 2676,
      "Ġholding": 2677,
      "Ġhistory": 2678,
      "conscious": 2679,
      "aÃ¯lov": 2680,
      "vidrigaÃ¯lov": 2681,
      "rough": 2682,
      "rep": 2683,
      "elle": 2684,
      "Ġagree": 2685,
      "rank": 2686,
      "ĠVasÃŃli": 2687,
      "culiar": 2688,
      "Ġfancy": 2689,
      "Ġast": 2690,
      "Ġben": 2691,
      "ases": 2692,
      "arily": 2693,
      "Ġweek": 2694,
      "Ġjud": 2695,
      "Ġshad": 2696,
      "Tom": 2697,
      "found": 2698,
      "Ġhill": 2699,
      "lend": 2700,
      "Ġharpo": 2701,
      "iety": 2702,
      "Ġiron": 2703,
      "Ġfigure": 2704,
      "ned": 2705,
      "lly": 2706,
      "arr": 2707,
      "Ġearn": 2708,
      "ĠMan": 2709,
      "ushing": 2710,
      "Ġliked": 2711,
      "ford": 2712,
      "Ġdescri": 2713,
      "duced": 2714,
      "Elizabeth": 2715,
      "good": 2716,
      "zy": 2717,
      "Ġtrave": 2718,
      "Ġwide": 2719,
      "Ġmod": 2720,
      "orfir": 2721,
      "Ġgard": 2722,
      "Ġval": 2723,
      "Ġaffection": 2724,
      "Ġinquir": 2725,
      "Ġfloor": 2726,
      "orfiry": 2727,
      "'d": 2728,
      "?âĢĻ": 2729,
      "Ġmid": 2730,
      "Ġfool": 2731,
      "Ġlatter": 2732,
      "Ġport": 2733,
      "Ġsmoke": 2734,
      "onsense": 2735,
      "Ġletters": 2736,
      "Ġprisoner": 2737,
      "Good": 2738,
      "inite": 2739,
      "has": 2740,
      "Ġcast": 2741,
      "Ġlength": 2742,
      "Ġeat": 2743,
      "ality": 2744,
      "ĠLondon": 2745,
      "Ġhandsome": 2746,
      "Ġeasy": 2747,
      "came": 2748,
      "jo": 2749,
      "Ġdied": 2750,
      "uture": 2751,
      "ĠLuc": 2752,
      "Ġdestro": 2753,
      "olkÃ³n": 2754,
      "pers": 2755,
      "Ġtall": 2756,
      "edd": 2757,
      "ories": 2758,
      "sequ": 2759,
      "chool": 2760,
      "ĠRoman": 2761,
      "Ġcloud": 2762,
      "Ġquestions": 2763,
      "ĠQueequeg": 2764,
      "Ġcru": 2765,
      "Ġearly": 2766,
      "ĠMina": 2767,
      "ĠSome": 2768,
      "ested": 2769,
      "Ġsoldier": 2770,
      "Ġsides": 2771,
      "Ġfly": 2772,
      "Ġpat": 2773,
      "Ġev": 2774,
      "Ã¡y": 2775,
      "ickham": 2776,
      "rief": 2777,
      "Ġwrote": 2778,
      "Ġwritten": 2779,
      "Ġkissed": 2780,
      "Ġsorrow": 2781,
      "Ġloud": 2782,
      "Ġstarted": 2783,
      "Ġlooks": 2784,
      "without": 2785,
      "Ġchanged": 2786,
      "Ġbroke": 2787,
      "arbuck": 2788,
      "Your": 2789,
      "such": 2790,
      "Ġmiddle": 2791,
      "Ġforce": 2792,
      "aining": 2793,
      "ellow": 2794,
      "Ġthank": 2795,
      "Ġtrust": 2796,
      "His": 2797,
      "ience": 2798,
      "oly": 2799,
      "Ġsingle": 2800,
      "ision": 2801,
      "Ġfat": 2802,
      "Ġhig": 2803,
      "Ġneither": 2804,
      "osity": 2805,
      "Ġgentlemen": 2806,
      "!âĢĻ": 2807,
      "Ġmass": 2808,
      "actly": 2809,
      "ping": 2810,
      "sat": 2811,
      "Ġeight": 2812,
      "Ġstern": 2813,
      "Ġconne": 2814,
      "exp": 2815,
      "Ġemp": 2816,
      "ollins": 2817,
      "Ġbound": 2818,
      "Ġhot": 2819,
      "Ġkilled": 2820,
      "osp": 2821,
      "nothing": 2822,
      "ĠKing": 2823,
      "Ġvoices": 2824,
      "uct": 2825,
      "Ġconst": 2826,
      "Ġlie": 2827,
      "Ġplaced": 2828,
      "Ġmarriage": 2829,
      "than": 2830,
      "Ġaunt": 2831,
      "add": 2832,
      "Ġneigh": 2833,
      "ĠDr": 2834,
      "ny": 2835,
      "sing": 2836,
      "rer": 2837,
      "Ġfle": 2838,
      "olute": 2839,
      "Ġlegs": 2840,
      "'ve": 2841,
      "min": 2842,
      "Ġmoving": 2843,
      "road": 2844,
      "ĠAust": 2845,
      "Ġneck": 2846,
      "Ġpossi": 2847,
      "Ġeverybody": 2848,
      "Ġbless": 2849,
      "Ġconscious": 2850,
      "Ġsurprised": 2851,
      "Ġdespair": 2852,
      "olkÃ³nski": 2853,
      "Ġbent": 2854,
      "Ġmark": 2855,
      "oned": 2856,
      "Ġtop": 2857,
      "Ġdrun": 2858,
      "Ġgloom": 2859,
      "race": 2860,
      "Ġkill": 2861,
      "Ġknowing": 2862,
      "Ġspent": 2863,
      "Ġaccord": 2864,
      "Ġbeauty": 2865,
      "hor": 2866,
      "round": 2867,
      "ues": 2868,
      "Ġce": 2869,
      "vering": 2870,
      "Ġsomeone": 2871,
      "Here": 2872,
      "Ġvarious": 2873,
      "ored": 2874,
      "occ": 2875,
      "zed": 2876,
      "Ġwit": 2877,
      "Ġhung": 2878,
      "Ġlod": 2879,
      "uded": 2880,
      "Ġinstead": 2881,
      "Ġbroad": 2882,
      "Ġmeaning": 2883,
      "III": 2884,
      "certain": 2885,
      "Ġfuture": 2886,
      "Ġpity": 2887,
      "think": 2888,
      "aked": 2889,
      "Ġheads": 2890,
      "expected": 2891,
      "Ġdifficult": 2892,
      "!...": 2893,
      "Be": 2894,
      "Come": 2895,
      "cause": 2896,
      "kind": 2897,
      "vol": 2898,
      "Ġavo": 2899,
      "Ġcre": 2900,
      "Ġcart": 2901,
      "Ġdressed": 2902,
      "Ġhang": 2903,
      "ury": 2904,
      "que": 2905,
      "ĠWill": 2906,
      "ieur": 2907,
      "feel": 2908,
      "formed": 2909,
      "faction": 2910,
      "Ġanxious": 2911,
      "hrist": 2912,
      "**": 2913,
      "fer": 2914,
      "inct": 2915,
      "erv": 2916,
      "Ġmag": 2917,
      "Ġbeat": 2918,
      "stairs": 2919,
      "idence": 2920,
      "ĠChar": 2921,
      "teen": 2922,
      "Ġdropped": 2923,
      "Ġsolemn": 2924,
      "Let": 2925,
      "cr": 2926,
      "cip": 2927,
      "dra": 2928,
      "pass": 2929,
      "Ġones": 2930,
      "cial": 2931,
      "Ġempt": 2932,
      "Ġquietly": 2933,
      "Ġtrans": 2934,
      "great": 2935,
      "Ġwis": 2936,
      "enced": 2937,
      "ased": 2938,
      "Ġpage": 2939,
      "Ġpapers": 2940,
      "Ġstop": 2941,
      "ĠLady": 2942,
      "tended": 2943,
      "Ġafterwards": 2944,
      "Ġglance": 2945,
      "Ġresult": 2946,
      "Ã©l": 2947,
      "ceeded": 2948,
      "Ġoppos": 2949,
      "ourage": 2950,
      "Ġcreature": 2951,
      "inced": 2952,
      "Ġhun": 2953,
      "ades": 2954,
      "Ġstone": 2955,
      "Ġconce": 2956,
      "Ġspot": 2957,
      "Ġbelong": 2958,
      "Ġlearned": 2959,
      "must": 2960,
      "Ġmaid": 2961,
      "Ġlower": 2962,
      "Ġexist": 2963,
      "Ġlived": 2964,
      "Ġnose": 2965,
      "arest": 2966,
      "Ġenc": 2967,
      "Ġpassing": 2968,
      "Ġconsidered": 2969,
      "Ġsettled": 2970,
      "Ġjourney": 2971,
      "ech": 2972,
      "mit": 2973,
      "rid": 2974,
      "turn": 2975,
      "Ġcovered": 2976,
      "Ġseat": 2977,
      "Ġshoulders": 2978,
      "Ġremarked": 2979,
      "Ġclothes": 2980,
      "Ġtremb": 2981,
      "Ġgallop": 2982,
      "Ġviol": 2983,
      "Ġadjut": 2984,
      "spect": 2985,
      "Ġcand": 2986,
      "Ġasking": 2987,
      "Ġdeck": 2988,
      "Ġvict": 2989,
      "Ġrooms": 2990,
      "eneral": 2991,
      "upon": 2992,
      "Ġsky": 2993,
      "Ġriver": 2994,
      "Ġdevil": 2995,
      "equod": 2996,
      "Ġdim": 2997,
      "Ġhealth": 2998,
      "Ġsusp": 2999,
      "Ġvan": 3000,
      "Ġwhatever": 3001,
      "elt": 3002,
      "ortun": 3003,
      "Ġscene": 3004,
      "Ġhappen": 3005,
      "ĠKaterina": 3006,
      "Ġkey": 3007,
      "upid": 3008,
      "ĠAnat": 3009,
      "Ġburst": 3010,
      "away": 3011,
      "eper": 3012,
      "may": 3013,
      "pres": 3014,
      "Ġage": 3015,
      "Ġsal": 3016,
      "Ġbow": 3017,
      "Ġmakes": 3018,
      "Ġhuss": 3019,
      "Ġsepar": 3020,
      "olog": 3021,
      "Ġexclaimed": 3022,
      "Ġfinished": 3023,
      "Ġdeterm": 3024,
      "idden": 3025,
      "ĠYour": 3026,
      "._--": 3027,
      "Ġmuttered": 3028,
      "ĠAnatole": 3029,
      "nce": 3030,
      "whe": 3031,
      "Ġfilled": 3032,
      "ĠCollins": 3033,
      "Ġmarry": 3034,
      "ails": 3035,
      "Ġdreadful": 3036,
      "Ġcontrary": 3037,
      "ydia": 3038,
      "RostÃ³v": 3039,
      "Ġcab": 3040,
      "otr": 3041,
      "Ġthick": 3042,
      "aled": 3043,
      "ĠFrom": 3044,
      "onsieur": 3045,
      "Ġenter": 3046,
      "Ġpleased": 3047,
      "Ġreading": 3048,
      "Ġlisten": 3049,
      "Ġgarden": 3050,
      "iant": 3051,
      "uous": 3052,
      "yotr": 3053,
      "ries": 3054,
      "Ġsave": 3055,
      "ift": 3056,
      "ĠPar": 3057,
      "ouses": 3058,
      "Ġsplend": 3059,
      "atherine": 3060,
      "ĠStarbuck": 3061,
      "Ġcapt": 3062,
      "Ġpursu": 3063,
      "Ġgreen": 3064,
      "friend": 3065,
      "tle": 3066,
      "Ġ2": 3067,
      "Ġdiv": 3068,
      "Ġgate": 3069,
      "âĢĶâĢľ": 3070,
      "umed": 3071,
      "Ġpromise": 3072,
      "Ġappearance": 3073,
      "bel": 3074,
      "through": 3075,
      "Ġdemand": 3076,
      "Ġkne": 3077,
      "Ġexpressed": 3078,
      "Ġaccept": 3079,
      "Ġconfess": 3080,
      "car": 3081,
      "ik": 3082,
      "much": 3083,
      "Ġnumber": 3084,
      "amma": 3085,
      "ĠWickham": 3086,
      "agr": 3087,
      "never": 3088,
      "iction": 3089,
      "Ġdraw": 3090,
      "Ġspoken": 3091,
      "Ġmeeting": 3092,
      "One": 3093,
      "Wh": 3094,
      "reed": 3095,
      "Ġhall": 3096,
      "Ġreck": 3097,
      "thur": 3098,
      "ĠPorfiry": 3099,
      "Ġfamil": 3100,
      "Ġwhisper": 3101,
      "Ġevents": 3102,
      "iam": 3103,
      "inting": 3104,
      "erhaps": 3105,
      "Ġring": 3106,
      "Ġordered": 3107,
      "Ġcouldn": 3108,
      "Ġhorror": 3109,
      "!âĢĶ": 3110,
      "cise": 3111,
      "hamed": 3112,
      "antic": 3113,
      "Ġbooks": 3114,
      "Ġimagine": 3115,
      "Ġsymp": 3116,
      "ossack": 3117,
      "Ã¨ne": 3118,
      "appeared": 3119,
      "Who": 3120,
      "awn": 3121,
      "might": 3122,
      "ric": 3123,
      "ouri": 3124,
      "ises": 3125,
      "ences": 3126,
      "Ġdust": 3127,
      "Ġgen": 3128,
      "Ġknowledge": 3129,
      "Ġtelling": 3130,
      "Ġmonths": 3131,
      "Ġentirely": 3132,
      "seemed": 3133,
      "mind": 3134,
      "Ġthee": 3135,
      "Ġmain": 3136,
      "Ġpen": 3137,
      "ĠBy": 3138,
      "ume": 3139,
      "Ġworse": 3140,
      "Ġpocket": 3141,
      "arker": 3142,
      "oubles": 3143,
      "Ġutter": 3144,
      "Ġparticularly": 3145,
      "Ġaffairs": 3146,
      "Ġprobably": 3147,
      "Ã©lÃ¨ne": 3148,
      "Where": 3149,
      "ker": 3150,
      "ert": 3151,
      "Ġden": 3152,
      "esides": 3153,
      "still": 3154,
      "Ġseized": 3155,
      "Ġrich": 3156,
      "usted": 3157,
      "Ġexactly": 3158,
      "umn": 3159,
      "Ġuneas": 3160,
      "Ġpeculiar": 3161,
      "Ġobl": 3162,
      "Ġdrawn": 3163,
      "Ġpriv": 3164,
      "Ġstranger": 3165,
      "back": 3166,
      "gin": 3167,
      "ike": 3168,
      "iosity": 3169,
      "pan": 3170,
      "Ġaim": 3171,
      "Ġmotion": 3172,
      "Ġlit": 3173,
      "Ġpet": 3174,
      "Ġpath": 3175,
      "ĠPÃ¡v": 3176,
      "Ġserious": 3177,
      "Ġintell": 3178,
      "Ġsuppos": 3179,
      "Ġdirection": 3180,
      "ajest": 3181,
      "sur": 3182,
      "Ġtreat": 3183,
      "inal": 3184,
      "Ġdrink": 3185,
      "Ġann": 3186,
      "Ġpointed": 3187,
      "Ġcoach": 3188,
      "fortun": 3189,
      "angu": 3190,
      "Ġbitter": 3191,
      "Ġparticular": 3192,
      "word": 3193,
      "Ġbab": 3194,
      "Ġbene": 3195,
      "itable": 3196,
      "Ġnonsense": 3197,
      "Ġeld": 3198,
      "Ġisn": 3199,
      "iform": 3200,
      "Ġdeg": 3201,
      "Ġchurch": 3202,
      "Ġgrow": 3203,
      "Ġattempt": 3204,
      "Ġtouched": 3205,
      "Ġears": 3206,
      "Ġthy": 3207,
      "amed": 3208,
      "Ġque": 3209,
      "Ġcompl": 3210,
      "Ġputting": 3211,
      "Ġforehead": 3212,
      "Ġdrove": 3213,
      "happy": 3214,
      "Ġperfectly": 3215,
      "Ġscarcely": 3216,
      "two": 3217,
      "ony": 3218,
      "Ġpac": 3219,
      "Ġyouth": 3220,
      "ĠPequod": 3221,
      "Ġfaith": 3222,
      "Ġunable": 3223,
      "eping": 3224,
      "acy": 3225,
      "Ġbegun": 3226,
      "Ġpassage": 3227,
      "tained": 3228,
      "Ġpaused": 3229,
      "ivity": 3230,
      "ĠRussia": 3231,
      "Ġspirits": 3232,
      "ĠJonathan": 3233,
      "oiselle": 3234,
      "Ġinterrupted": 3235,
      "end": 3236,
      "phe": 3237,
      "zz": 3238,
      "Ġfrown": 3239,
      "Ġashamed": 3240,
      "ĠSvidrigaÃ¯lov": 3241,
      "hens": 3242,
      "emoiselle": 3243,
      "arton": 3244,
      "Ġaband": 3245,
      "Ġjump": 3246,
      "Ġgreater": 3247,
      "ĠJoe": 3248,
      "Ġpride": 3249,
      "Ġproud": 3250,
      "Ġpolice": 3251,
      "Ġsatisfied": 3252,
      "Ġfingers": 3253,
      "Ġcircumstances": 3254,
      "Ġearnest": 3255,
      "Ġempty": 3256,
      "uge": 3257,
      "another": 3258,
      "ĠTell": 3259,
      "Ġseven": 3260,
      "Ġblind": 3261,
      "lessly": 3262,
      "Ġretreat": 3263,
      "Ġfollowing": 3264,
      "Ġsimple": 3265,
      "eyes": 3266,
      "Ġmusic": 3267,
      "place": 3268,
      "Al": 3269,
      "Ġain": 3270,
      "Ġcrew": 3271,
      "oted": 3272,
      "semb": 3273,
      "Ġthro": 3274,
      "oves": 3275,
      "ĠLydia": 3276,
      "ĠChrist": 3277,
      "ext": 3278,
      "atiÃ³n": 3279,
      "board": 3280,
      "Ġstreets": 3281,
      "agratiÃ³n": 3282,
      "del": 3283,
      "hum": 3284,
      "made": 3285,
      "Ġpun": 3286,
      "Ġgro": 3287,
      "Ġsafe": 3288,
      "ĠPross": 3289,
      "Ġfond": 3290,
      "Ġteeth": 3291,
      "Ġguard": 3292,
      "Ġexcited": 3293,
      "Ġmoon": 3294,
      "Ġsplendid": 3295,
      "Ġauth": 3296,
      "erry": 3297,
      "Ġsugg": 3298,
      "Ġnoble": 3299,
      "Ġbelow": 3300,
      "Ġwalking": 3301,
      "Ġawful": 3302,
      "Ġfreed": 3303,
      "Ġincre": 3304,
      "Ġacquaint": 3305,
      "Ġoccurred": 3306,
      "last": 3307,
      "tal": 3308,
      "Ġta": 3309,
      "Ġpal": 3310,
      "Ġbell": 3311,
      "Ġstairs": 3312,
      "Ġsupper": 3313,
      "ĠXV": 3314,
      "Ġengaged": 3315,
      "Ġoblig": 3316,
      "ection": 3317,
      "ipe": 3318,
      "Ġmort": 3319,
      "Ġlab": 3320,
      "ays": 3321,
      "acqu": 3322,
      "ĠOf": 3323,
      "Ġgrown": 3324,
      "Ġcarry": 3325,
      "Ġbusy": 3326,
      "Ġcondition": 3327,
      "Ġexplain": 3328,
      "Ġeasily": 3329,
      "ĠMadame": 3330,
      "dist": 3331,
      "ius": 3332,
      "iven": 3333,
      "went": 3334,
      "Ġmed": 3335,
      "Ġfish": 3336,
      "Ġfashion": 3337,
      "Ġinflu": 3338,
      "ature": 3339,
      "attered": 3340,
      "imate": 3341,
      "seen": 3342,
      "Ġstir": 3343,
      "ĠAm": 3344,
      "Ġdelic": 3345,
      "ists": 3346,
      "Ġgoes": 3347,
      "Ġunknown": 3348,
      "ishment": 3349,
      "Ġbridge": 3350,
      "Ġwaited": 3351,
      "Ġchest": 3352,
      "Ġdarkness": 3353,
      "ĠManette": 3354,
      "aves": 3355,
      "reme": 3356,
      "Ġbird": 3357,
      "Ġlim": 3358,
      "Ġpill": 3359,
      "Ġpause": 3360,
      "Ġnur": 3361,
      "ĠCome": 3362,
      "ĠCatherine": 3363,
      "ĠGu": 3364,
      "Ġspecial": 3365,
      "Ġbesides": 3366,
      "bre": 3367,
      "moment": 3368,
      "Ġtong": 3369,
      "resh": 3370,
      "Ġcoun": 3371,
      "leg": 3372,
      "ĠAunt": 3373,
      "Ġallow": 3374,
      "using": 3375,
      "Ġgovern": 3376,
      "Ġsmo": 3377,
      "Ġboats": 3378,
      "Ġshoulder": 3379,
      "coat": 3380,
      "Ġprot": 3381,
      "Ġsounds": 3382,
      "ounced": 3383,
      "ĠOnly": 3384,
      "ĠQu": 3385,
      "Ġaston": 3386,
      "iod": 3387,
      "zen": 3388,
      "Ġfit": 3389,
      "Ġrising": 3390,
      "ĠCossack": 3391,
      "ĠJust": 3392,
      "arnay": 3393,
      "position": 3394,
      "Ġstrugg": 3395,
      "Ġtouch": 3396,
      "Ġgazed": 3397,
      "Ġescape": 3398,
      "Ġprepared": 3399,
      "Of": 3400,
      "mber": 3401,
      "tic": 3402,
      "vis": 3403,
      "Ġschool": 3404,
      "Ġbare": 3405,
      "itz": 3406,
      "itated": 3407,
      "Ġfal": 3408,
      "Ġciv": 3409,
      "Ġincl": 3410,
      "Ġprin": 3411,
      "Ġstupid": 3412,
      "Ġdog": 3413,
      "Ġlistening": 3414,
      "Ġadvant": 3415,
      "understand": 3416,
      "Ġmiles": 3417,
      "Ġoccupied": 3418,
      "Ġadjutant": 3419,
      "From": 3420,
      "take": 3421,
      "wr": 3422,
      "heart": 3423,
      "Ġsim": 3424,
      "isher": 3425,
      "Ġceas": 3426,
      "Ġhide": 3427,
      "ste": 3428,
      "Ġforth": 3429,
      "Ġattend": 3430,
      "Ġvain": 3431,
      "âĢĶâĢĿ": 3432,
      "Ġuncle": 3433,
      "Ġsomewhere": 3434,
      "ability": 3435,
      "Ġcho": 3436,
      "Ġapart": 3437,
      "ucket": 3438,
      "noon": 3439,
      "Ġsisters": 3440,
      "Ġextra": 3441,
      "Ġforgotten": 3442,
      "got": 3443,
      "gain": 3444,
      "ifferent": 3445,
      "Ġvirt": 3446,
      "Ã¡ty": 3447,
      "Ġpassion": 3448,
      "Ã©n": 3449,
      "Ġclearly": 3450,
      "Ġmatters": 3451,
      "ortunity": 3452,
      "don": 3453,
      "rily": 3454,
      "ĠBolkÃ³nski": 3455,
      "ĠWho": 3456,
      "ounds": 3457,
      "ieve": 3458,
      "eless": 3459,
      "ighed": 3460,
      "Ġuniform": 3461,
      "ĠSee": 3462,
      "Ġlifted": 3463,
      ".)": 3464,
      "pri": 3465,
      "Ġtired": 3466,
      "orge": 3467,
      "Ġrid": 3468,
      "Ġprevent": 3469,
      "hys": 3470,
      "Ġrapidly": 3471,
      "cies": 3472,
      "eav": 3473,
      "ism": 3474,
      "Ġcity": 3475,
      "Ġlaughter": 3476,
      "step": 3477,
      "Ġformed": 3478,
      "ĠHarker": 3479,
      "Ġlives": 3480,
      "orted": 3481,
      "Ġcarefully": 3482,
      "Ġassist": 3483,
      "Ġinvol": 3484,
      "Ġfallen": 3485,
      "first": 3486,
      "Ġwatching": 3487,
      "appo": 3488,
      "Ġbreakfast": 3489,
      "Ġsuspic": 3490,
      "anna": 3491,
      "Ġpract": 3492,
      "Ġvent": 3493,
      "Ġoutside": 3494,
      "Ġtimid": 3495,
      "Ġlikely": 3496,
      "ĠGood": 3497,
      "apart": 3498,
      "Ġspeech": 3499,
      "Ġperiod": 3500,
      "Ġharm": 3501,
      "Ġclean": 3502,
      "ĠRostÃ³vs": 3503,
      "Ġterror": 3504,
      "Ġguess": 3505,
      "Ġbreast": 3506,
      "Ġsoftly": 3507,
      "Ġwatched": 3508,
      "Ġcompanion": 3509,
      "By": 3510,
      "Princess": 3511,
      "cast": 3512,
      "wind": 3513,
      "Ġid": 3514,
      "inc": 3515,
      "Ġsuper": 3516,
      "ĠPyotr": 3517,
      "ĠCarton": 3518,
      "Ġspring": 3519,
      "iculty": 3520,
      "Ġcuriosity": 3521,
      "Ġdrive": 3522,
      "satis": 3523,
      "00": 3524,
      "case": 3525,
      "lor": 3526,
      "ope": 3527,
      "Ġver": 3528,
      "Ġwore": 3529,
      "Ġcatch": 3530,
      "Ġhearing": 3531,
      "asure": 3532,
      "Ġpressed": 3533,
      "Ġpublic": 3534,
      "ics": 3535,
      "these": 3536,
      "ests": 3537,
      "law": 3538,
      "Ġtwice": 3539,
      "Ġthrown": 3540,
      "Ġmurder": 3541,
      "bor": 3542,
      "Ġfate": 3543,
      "arrow": 3544,
      "ĠInd": 3545,
      "thy": 3546,
      "ache": 3547,
      "ordinary": 3548,
      "comfort": 3549,
      "Ġlovely": 3550,
      "Ġpromised": 3551,
      "ĠArthur": 3552,
      "Ġfinger": 3553,
      "Ġcheerful": 3554,
      "Ã¡tych": 3555,
      "iner": 3556,
      "Ġsank": 3557,
      "Ġfr": 3558,
      "Ġstro": 3559,
      "ĠHÃ©lÃ¨ne": 3560,
      "Ġfever": 3561,
      "ĠDe": 3562,
      "Ġspread": 3563,
      "Ġboots": 3564,
      "conc": 3565,
      "lpÃ¡tych": 3566,
      "Ġconcern": 3567,
      "began": 3568,
      "Ġrecogni": 3569,
      "Ġauthor": 3570,
      "Ġfreedom": 3571,
      "ait": 3572,
      "Ġreve": 3573,
      "gel": 3574,
      "Ġnearer": 3575,
      "Ġgrowing": 3576,
      "shall": 3577,
      "Ġdoesn": 3578,
      "Ġhurry": 3579,
      "looked": 3580,
      "ĠYet": 3581,
      "life": 3582,
      "nal": 3583,
      "view": 3584,
      "Ġwond": 3585,
      "anch": 3586,
      "illy": 3587,
      "Ġallowed": 3588,
      "ĠGe": 3589,
      "Ġrepro": 3590,
      "Ġloss": 3591,
      "rovna": 3592,
      "Ġdecla": 3593,
      "Ġhonour": 3594,
      "Ġhopes": 3595,
      "Ġflew": 3596,
      "ikh": 3597,
      "mor": 3598,
      "mar": 3599,
      "Ġmess": 3600,
      "Ġfurn": 3601,
      "onse": 3602,
      "Ġoffered": 3603,
      "Ġaside": 3604,
      "Ġexec": 3605,
      "ague": 3606,
      "meric": 3607,
      "Ġevident": 3608,
      "Ġprisoners": 3609,
      "Ġconvinced": 3610,
      "Ġpeasants": 3611,
      "Ã«v": 3612,
      "ikhÃ¡y": 3613,
      "mother": 3614,
      "took": 3615,
      "Ġbeha": 3616,
      "irst": 3617,
      "Ġstation": 3618,
      "ribut": 3619,
      "child": 3620,
      "ĠBagratiÃ³n": 3621,
      "Ġshown": 3622,
      "ĠLe": 3623,
      "ĠLiz": 3624,
      "lies": 3625,
      "Ġplaces": 3626,
      "athy": 3627,
      "izing": 3628,
      "Ġdistur": 3629,
      "Ġabsolute": 3630,
      "ĠPÃ¡vlovna": 3631,
      "ives": 3632,
      "put": 3633,
      "ashing": 3634,
      "Ġinform": 3635,
      "herself": 3636,
      "cky": 3637,
      "ĠWhere": 3638,
      "Ġunexpected": 3639,
      "rows": 3640,
      "Ġimpati": 3641,
      "Ġattent": 3642,
      "gging": 3643,
      "Mrs": 3644,
      "Ġsuffering": 3645,
      "Ġresolved": 3646,
      "Ġopposite": 3647,
      "eed": 3648,
      "woman": 3649,
      "inte": 3650,
      "Ġmood": 3651,
      "enne": 3652,
      "asons": 3653,
      "icing": 3654,
      "velo": 3655,
      "Ġstaff": 3656,
      "ĠSperm": 3657,
      "Ġshock": 3658,
      "Ġalive": 3659,
      "ption": 3660,
      "Ġfail": 3661,
      "Ġaffect": 3662,
      "being": 3663,
      "Ġspect": 3664,
      "Ġsuffer": 3665,
      "annah": 3666,
      "ikhÃ¡ylovna": 3667,
      "La": 3668,
      "ib": 3669,
      "non": 3670,
      "inst": 3671,
      "isto": 3672,
      "ingu": 3673,
      "Ġinno": 3674,
      "ovitch": 3675,
      "aker": 3676,
      "hank": 3677,
      "Ġdisg": 3678,
      "Ġdisco": 3679,
      "Ġboard": 3680,
      "Ġwriting": 3681,
      "Ġimpro": 3682,
      "anything": 3683,
      "Ġcurious": 3684,
      "ourienne": 3685,
      "cor": 3686,
      "gar": 3687,
      "onapart": 3688,
      "Ġcook": 3689,
      "Ġlines": 3690,
      "Ġpack": 3691,
      "Ġsuc": 3692,
      "ĠPol": 3693,
      "Ġshot": 3694,
      "ĠDarnay": 3695,
      "Ġpointing": 3696,
      "rud": 3697,
      "Ġscream": 3698,
      "ignity": 3699,
      "Ġregret": 3700,
      "Ġwindows": 3701,
      "Ġjoined": 3702,
      "Ġtrees": 3703,
      "Ġpulled": 3704,
      "Ġwitness": 3705,
      "Ġcous": 3706,
      "Ġrejo": 3707,
      "Ġrain": 3708,
      "Ġknock": 3709,
      "Ġcontempt": 3710,
      "Ġbelieved": 3711,
      "ĠRussians": 3712,
      "door": 3713,
      "ĠThough": 3714,
      "work": 3715,
      "Ġquarter": 3716,
      "Ġemplo": 3717,
      "Ġdrunk": 3718,
      "book": 3719,
      "fire": 3720,
      "ibly": 3721,
      "sub": 3722,
      "viously": 3723,
      "zing": 3724,
      "Ġtail": 3725,
      "Ġbread": 3726,
      "Ġfla": 3727,
      "Ġdance": 3728,
      "vere": 3729,
      "Ġweeks": 3730,
      "ĠTur": 3731,
      "those": 3732,
      "ateful": 3733,
      "Ġworn": 3734,
      "Ġunconscious": 3735,
      "opch": 3736,
      "conf": 3737,
      "odya": 3738,
      "Ġregular": 3739,
      "Ġapparent": 3740,
      "Ġneeded": 3741,
      "Ġideas": 3742,
      "Ġirrit": 3743,
      "Ġsignific": 3744,
      "offin": 3745,
      "ĠUn": 3746,
      "ĠParis": 3747,
      "Ġfamiliar": 3748,
      "dot": 3749,
      "ple": 3750,
      "pter": 3751,
      "rain": 3752,
      "too": 3753,
      "heard": 3754,
      "Ġbag": 3755,
      "Ġcat": 3756,
      "uses": 3757,
      "ostopch": 3758,
      "Ġyours": 3759,
      "love": 3760,
      "Ġoffer": 3761,
      "Ġways": 3762,
      "Ġblame": 3763,
      "Ġgreatest": 3764,
      "Ġpair": 3765,
      "Ġcaused": 3766,
      "Ġshouting": 3767,
      "Ġinteresting": 3768,
      "Ġexperience": 3769,
      "AR": 3770,
      "Nicholas": 3771,
      "mÃŃt": 3772,
      "iny": 3773,
      "urally": 3774,
      "ĠMonsieur": 3775,
      "Ġvast": 3776,
      "Ġgrat": 3777,
      "riev": 3778,
      "Ġpersu": 3779,
      "Ġhate": 3780,
      "Ġcrossed": 3781,
      "everything": 3782,
      "ald": 3783,
      "col": 3784,
      "iable": 3785,
      "Ġsigh": 3786,
      "Ġbowed": 3787,
      "Ġdying": 3788,
      "Ġlose": 3789,
      "ading": 3790,
      "Ġmel": 3791,
      "quis": 3792,
      "antucket": 3793,
      "Ġaltogether": 3794,
      "because": 3795,
      "play": 3796,
      "Ġmiserable": 3797,
      "Ġsummer": 3798,
      "Ġexcellency": 3799,
      "ostopchÃŃn": 3800,
      "French": 3801,
      "HE": 3802,
      "Very": 3803,
      "gers": 3804,
      "give": 3805,
      "erk": 3806,
      "Ġbrill": 3807,
      "Ġwear": 3808,
      "things": 3809,
      "ulcher": 3810,
      "Ġvol": 3811,
      "neur": 3812,
      "Ġblow": 3813,
      "Ġourselves": 3814,
      "lease": 3815,
      "Ġvoy": 3816,
      "Ġmoments": 3817,
      "Ãºsh": 3818,
      "Ġadmir": 3819,
      "ĠĠĠĠĠĠĠĠĠĠĠĠĠĠĠĠĠĠĠĠĠĠĠĠĠĠĠĠĠĠĠĠ": 3820,
      "Ġextreme": 3821,
      "ĠEngland": 3822,
      "Ġfavour": 3823,
      "Ġcompletely": 3824,
      "Ġmemory": 3825,
      "Ġavoid": 3826,
      "onaparte": 3827,
      "ulcheria": 3828,
      "Go": 3829,
      "Just": 3830,
      "cur": 3831,
      "cour": 3832,
      "rum": 3833,
      "Ġband": 3834,
      "Ġhabit": 3835,
      "Ġere": 3836,
      "racted": 3837,
      "ĠSu": 3838,
      "arther": 3839,
      "ĠCan": 3840,
      "ruction": 3841,
      "ĠGard": 3842,
      "Ġfold": 3843,
      "Ġcommun": 3844,
      "Ġkindly": 3845,
      "untarily": 3846,
      "Ġstepped": 3847,
      "ĠXI": 3848,
      "Ġfrequ": 3849,
      "Ġcontinually": 3850,
      "runcher": 3851,
      "Ġsatisfaction": 3852,
      "Ġanxiety": 3853,
      "ĠAlexander": 3854,
      "Ġknees": 3855,
      "fs": 3856,
      "Ġhouses": 3857,
      "Ġham": 3858,
      "ĠAh": 3859,
      "Ġdepend": 3860,
      "antry": 3861,
      "Ġsomewhat": 3862,
      "Ġshaking": 3863,
      "Ġbold": 3864,
      "aped": 3865,
      "Ġgrass": 3866,
      "Ġglancing": 3867,
      "Ġendeav": 3868,
      "Ġintro": 3869,
      "Ġdirect": 3870,
      "Ġdiscuss": 3871,
      "Ġfifty": 3872,
      "athered": 3873,
      "Ġevil": 3874,
      "aily": 3875,
      "aign": 3876,
      "zhin": 3877,
      "Ġtast": 3878,
      "hest": 3879,
      "itement": 3880,
      "Ġmast": 3881,
      "Ġpick": 3882,
      "Ġpiece": 3883,
      "Ġconsequ": 3884,
      "Ġmanners": 3885,
      "Ġbecom": 3886,
      "Ġaddress": 3887,
      "Ġpresented": 3888,
      "ĠSeward": 3889,
      "Ġopportunity": 3890,
      "Ġlandl": 3891,
      "Ġpatient": 3892,
      "Ġshadow": 3893,
      "Ġmagn": 3894,
      "Ġceased": 3895,
      "aiting": 3896,
      "Ġign": 3897,
      "Ġwand": 3898,
      "Ġfaint": 3899,
      "arse": 3900,
      "Ġyellow": 3901,
      "Ġthreat": 3902,
      "Ġweather": 3903,
      "Ġmere": 3904,
      "ĠMay": 3905,
      "Ġdesce": 3906,
      "Ġfacts": 3907,
      "Ġtrif": 3908,
      "Ġdepart": 3909,
      "Ġmentioned": 3910,
      "ĠLucie": 3911,
      "Ġadvantage": 3912,
      "iest": 3913,
      "por": 3914,
      "tell": 3915,
      "erning": 3916,
      "Ġble": 3917,
      "enance": 3918,
      "Ġgest": 3919,
      "ĠMor": 3920,
      "ĠSm": 3921,
      "Ġdeli": 3922,
      "anted": 3923,
      "hant": 3924,
      "ĠCruncher": 3925,
      "Ġarran": 3926,
      "Ġsmell": 3927,
      "ips": 3928,
      "mense": 3929,
      "Ġcheeks": 3930,
      "Ġforgive": 3931,
      "Ġrecoll": 3932,
      "ĠMademoiselle": 3933,
      "Ġreckon": 3934,
      "ajesty": 3935,
      "God": 3936,
      "rounded": 3937,
      "same": 3938,
      "tw": 3939,
      "Ġban": 3940,
      "Ġhaven": 3941,
      "always": 3942,
      "iles": 3943,
      "ĠBal": 3944,
      "Ġrub": 3945,
      "Ġneg": 3946,
      "ardon": 3947,
      "urence": 3948,
      "Ġjaw": 3949,
      "oft": 3950,
      "acle": 3951,
      "igned": 3952,
      "Ġinstantly": 3953,
      "Ġkeeping": 3954,
      "Ġarrival": 3955,
      "natural": 3956,
      "pleasant": 3957,
      "ĠAustri": 3958,
      "Miss": 3959,
      "clo": 3960,
      "Ġfood": 3961,
      "uted": 3962,
      "rif": 3963,
      "Ġsuit": 3964,
      "ilar": 3965,
      "ĠBesides": 3966,
      "ĠThese": 3967,
      "oused": 3968,
      "Ġalthough": 3969,
      "ĠLong": 3970,
      "igneur": 3971,
      "Ã¡ry": 3972,
      "Ġgroup": 3973,
      "Ġpaid": 3974,
      "Ġexcellent": 3975,
      "Ġbeneath": 3976,
      "Ġthroat": 3977,
      "Ġinfluence": 3978,
      "Ã©nsk": 3979,
      "Un": 3980,
      "oor": 3981,
      "vdot": 3982,
      "Ġmot": 3983,
      "Ġgay": 3984,
      "Ġforced": 3985,
      "ainted": 3986,
      "amb": 3987,
      "ament": 3988,
      "Ġmyst": 3989,
      "Ġsuf": 3990,
      "ĠPe": 3991,
      "Ġnodd": 3992,
      "Ġarrange": 3993,
      "Ã¡gin": 3994,
      "Ġshame": 3995,
      "Ġflowers": 3996,
      "Ã©ev": 3997,
      "Ġdifficulty": 3998,
      "Ġfavor": 3999,
      "Ġtemper": 4000,
      "Ġqueer": 4001,
      "ĠGeorge": 4002,
      "vdotya": 4003,
      "Pet": 4004,
      "fac": 4005,
      "Ġwake": 4006,
      "hal": 4007,
      "Ġchat": 4008,
      "Ġinj": 4009,
      "Ġthirty": 4010,
      "ĠBr": 4011,
      "Ġamaz": 4012,
      "Ġbrain": 4013,
      "Ġremind": 4014,
      "Ġflat": 4015,
      "ected": 4016,
      "Ġaddressed": 4017,
      "oubled": 4018,
      "Ġdrop": 4019,
      "Ġfortune": 4020,
      "Ã¡rya": 4021,
      "den": 4022,
      "iat": 4023,
      "ollow": 4024,
      "Ġtask": 4025,
      "Ġwet": 4026,
      "Ġwound": 4027,
      "Ġwinter": 4028,
      "Ġgrief": 4029,
      "Ġsav": 4030,
      "ĠAmeric": 4031,
      "ĠNor": 4032,
      "Ġunf": 4033,
      "Ġanybody": 4034,
      "ĠFl": 4035,
      "ĠOr": 4036,
      "Ġafternoon": 4037,
      "Ġperp": 4038,
      "cience": 4039,
      "Ġhearts": 4040,
      "ashÃ«v": 4041,
      "Ġforest": 4042,
      "Ġadvance": 4043,
      "Ġwonderful": 4044,
      "Ġburning": 4045,
      "ergy": 4046,
      "Ġcruel": 4047,
      "Ġhigher": 4048,
      "interest": 4049,
      "Every": 4050,
      "Look": 4051,
      "host": 4052,
      "Ġice": 4053,
      "ndered": 4054,
      "Ġorig": 4055,
      "Ġbore": 4056,
      "Ġcrying": 4057,
      "Ġcoup": 4058,
      "Ġpit": 4059,
      "ley": 4060,
      "rooke": 4061,
      "pper": 4062,
      "Ġprecious": 4063,
      "ĠGo": 4064,
      "cient": 4065,
      "coming": 4066,
      "ceiving": 4067,
      "Ġcrime": 4068,
      "Ġactivity": 4069,
      "Ġfinally": 4070,
      "Ġdetermined": 4071,
      "Ġdegree": 4072,
      "uel": 4073,
      "vation": 4074,
      "wal": 4075,
      "Ġbank": 4076,
      "Ġhosp": 4077,
      "Ġhes": 4078,
      "Ġlangu": 4079,
      "Ġpra": 4080,
      "idering": 4081,
      "Ġreceive": 4082,
      "Ġstream": 4083,
      "key": 4084,
      "ills": 4085,
      "ilst": 4086,
      "Ġlies": 4087,
      "ĠRodya": 4088,
      "Ġprove": 4089,
      "shire": 4090,
      "Ġtrain": 4091,
      "Ġcrim": 4092,
      "Ġcircle": 4093,
      "Ġdiscovered": 4094,
      "Ġtriump": 4095,
      "Ġtouching": 4096,
      "Nothing": 4097,
      "Ġleaning": 4098,
      "gentle": 4099,
      "Ġsitu": 4100,
      "Ġoh": 4101,
      "Ġfet": 4102,
      "Ġnerv": 4103,
      "Ġgame": 4104,
      "Ġwel": 4105,
      "Ġanger": 4106,
      "ĠLook": 4107,
      "Ġunless": 4108,
      "tending": 4109,
      "Ġprevious": 4110,
      "ĠEven": 4111,
      "Ġwants": 4112,
      "fact": 4113,
      "Ġgenerally": 4114,
      "Ġdirectly": 4115,
      "Ġmisery": 4116,
      "perior": 4117,
      "Ġcharming": 4118,
      "Ġvisitor": 4119,
      "Ġtongue": 4120,
      "onseigneur": 4121,
      ").": 4122,
      "cil": 4123,
      "dom": 4124,
      "oon": 4125,
      "whale": 4126,
      "Ġbrave": 4127,
      "Ġcustom": 4128,
      "Ġcourage": 4129,
      "Ġhy": 4130,
      "Ġdull": 4131,
      "Ġyard": 4132,
      "cean": 4133,
      "ĠMikhÃ¡ylovna": 4134,
      "ĠHannah": 4135,
      "Ġmyster": 4136,
      "three": 4137,
      "Ġfault": 4138,
      "odin": 4139,
      "necess": 4140,
      "agement": 4141,
      "emyon": 4142,
      "Ġaccording": 4143,
      "kerchief": 4144,
      "Ġacquaintance": 4145,
      "Ġfalse": 4146,
      "Ġcousin": 4147,
      "cal": 4148,
      "line": 4149,
      "Ġsong": 4150,
      "Ġsla": 4151,
      "Ġbor": 4152,
      "Ġmater": 4153,
      "Ġpipe": 4154,
      "âĢľ_": 4155,
      "Ġstorm": 4156,
      "ĠAlpÃ¡tych": 4157,
      "people": 4158,
      "ryver": 4159,
      "Ġhanded": 4160,
      "Ġthrow": 4161,
      "Ġsilently": 4162,
      "aval": 4163,
      "Ġinterested": 4164,
      "Ġjoin": 4165,
      "olly": 4166,
      "Ġcolonel": 4167,
      "Ġmilitary": 4168,
      "Ġslept": 4169,
      "ternal": 4170,
      "Ġwishes": 4171,
      "odinÃ³": 4172,
      ";\"": 4173,
      "iver": 4174,
      "lin": 4175,
      "saw": 4176,
      "table": 4177,
      "Ġaud": 4178,
      "reen": 4179,
      "oul": 4180,
      "itiz": 4181,
      "Ġfarther": 4182,
      "Ġheight": 4183,
      "Ġdefe": 4184,
      "ĠBourienne": 4185,
      "uls": 4186,
      "ĠNew": 4187,
      "Ġarg": 4188,
      "ĠFrance": 4189,
      "Ġdisappo": 4190,
      "Andrew": 4191,
      "young": 4192,
      "offic": 4193,
      "Ġexplained": 4194,
      "Ġapproached": 4195,
      "Ġagreeable": 4196,
      "Have": 4197,
      "fall": 4198,
      "felt": 4199,
      "make": 4200,
      "wood": 4201,
      "Ġcases": 4202,
      "Ġdam": 4203,
      "Ġloving": 4204,
      "Ġinev": 4205,
      "ldom": 4206,
      "ĠPulcheria": 4207,
      "itty": 4208,
      "ĠNantucket": 4209,
      "ĠRostopchÃŃn": 4210,
      "Ġimmense": 4211,
      "bye": 4212,
      "Ġexplan": 4213,
      "Ġvex": 4214,
      "ĠWhite": 4215,
      "Ġharpoone": 4216,
      "Ġtrembling": 4217,
      "Ġsympathy": 4218,
      "Ġbaby": 4219,
      "camp": 4220,
      "ium": 4221,
      "ky": 4222,
      "port": 4223,
      "rand": 4224,
      "Ġhunt": 4225,
      "Ġwasn": 4226,
      "Ġseated": 4227,
      "Ġexceed": 4228,
      "ĠDmÃŃt": 4229,
      "ĠNik": 4230,
      "Ġje": 4231,
      "Ġoffice": 4232,
      "Ġgray": 4233,
      "Ġsorts": 4234,
      "Ġassure": 4235,
      "box": 4236,
      "ugust": 4237,
      "Ġpolit": 4238,
      "Ġwhaling": 4239,
      "Ġexperienced": 4240,
      "Ġhistorians": 4241,
      "Ġguns": 4242,
      "Ġbottom": 4243,
      "rievna": 4244,
      "SÃ³nya": 4245,
      "bus": 4246,
      "master": 4247,
      "pa": 4248,
      "yet": 4249,
      "Ġsin": 4250,
      "Ġsperm": 4251,
      "Ġmal": 4252,
      "Ġmill": 4253,
      "Ġdry": 4254,
      "Ġluck": 4255,
      "Ġinn": 4256,
      "icle": 4257,
      "top": 4258,
      "Ġshudd": 4259,
      "Ġves": 4260,
      "ieved": 4261,
      "Ġseek": 4262,
      "Ġaddressing": 4263,
      "Ġunderstanding": 4264,
      "Ġrelations": 4265,
      "ĠLaurence": 4266,
      "Ġgazing": 4267,
      "bro": 4268,
      "lm": 4269,
      "ris": 4270,
      "yer": 4271,
      "Ġess": 4272,
      "Ġlun": 4273,
      "Ġgathered": 4274,
      "enth": 4275,
      "Ġreach": 4276,
      "Ġris": 4277,
      "olÃ©nsk": 4278,
      "elve": 4279,
      "ÃŃkh": 4280,
      "Ġplans": 4281,
      "Ġflank": 4282,
      "order": 4283,
      "supp": 4284,
      "suddenly": 4285,
      "Ġfinding": 4286,
      "Ġclever": 4287,
      "hard": 4288,
      "ĠCountess": 4289,
      "Ġmistake": 4290,
      "Ġdelighted": 4291,
      "Ġdelay": 4292,
      "Ġequal": 4293,
      "question": 4294,
      "Ġcampaign": 4295,
      "Ġbrilliant": 4296,
      "mis": 4297,
      "pes": 4298,
      "held": 4299,
      "Ġwretched": 4300,
      "reason": 4301,
      "Ġmir": 4302,
      "enge": 4303,
      "Ġcro": 4304,
      "Ġlar": 4305,
      "Ġnine": 4306,
      "Ġnarrow": 4307,
      "Ġyield": 4308,
      "icient": 4309,
      "Ġsacri": 4310,
      "ĠSomet": 4311,
      "âĢĶ_": 4312,
      "Ġworked": 4313,
      "igs": 4314,
      "Ġcannon": 4315,
      "fulness": 4316,
      "rang": 4317,
      "osop": 4318,
      "Ġcontin": 4319,
      "Ġyounger": 4320,
      "vided": 4321,
      "Ġimpression": 4322,
      "ĠStreet": 4323,
      "Ġappo": 4324,
      "ailed": 4325,
      "Ġabsence": 4326,
      "Ġpersonal": 4327,
      "Ġservant": 4328,
      "Ġdeeply": 4329,
      "ĠQueen": 4330,
      "Ġleaned": 4331,
      "ĠRomanovna": 4332,
      "Qu": 4333,
      "called": 4334,
      "Ġsighed": 4335,
      "erve": 4336,
      "Ġmild": 4337,
      "once": 4338,
      "asp": 4339,
      "Ġlamp": 4340,
      "Ġpushed": 4341,
      "Ġphys": 4342,
      "cking": 4343,
      "Ġrum": 4344,
      "Ġfeared": 4345,
      "urely": 4346,
      "ĠRod": 4347,
      "ivered": 4348,
      "Ġimper": 4349,
      "inking": 4350,
      "Ġproduced": 4351,
      "ĠKar": 4352,
      "ĠFrenchman": 4353,
      "Ġdistingu": 4354,
      "Ġmonster": 4355,
      "Ġadvice": 4356,
      "Ġfalling": 4357,
      "Ġangrily": 4358,
      "Ġcolour": 4359,
      "chair": 4360,
      "Ġlaws": 4361,
      "Ġbuild": 4362,
      "Ġhurriedly": 4363,
      "Ġpeasant": 4364,
      "ustomed": 4365,
      "ĠAlexandrovna": 4366,
      "mission": 4367,
      "Ġneighbour": 4368,
      "Ġjumped": 4369,
      "Laurie": 4370,
      ",'": 4371,
      "ivers": 4372,
      "som": 4373,
      "wild": 4374,
      "Ġdue": 4375,
      "Ġdressing": 4376,
      "aning": 4377,
      "Ġease": 4378,
      "Ġforces": 4379,
      "ĠMo": 4380,
      "aming": 4381,
      "Ġshed": 4382,
      "quar": 4383,
      "ĠBrooke": 4384,
      "Ġrust": 4385,
      "Ġrolled": 4386,
      "Ġsomehow": 4387,
      "Ġdesper": 4388,
      "Ġsurrounded": 4389,
      "Ġswift": 4390,
      "habit": 4391,
      "Ġadvanced": 4392,
      "Ġconduct": 4393,
      "Ġservants": 4394,
      "Ġtranqu": 4395,
      "Ġimportance": 4396,
      "Ġhoped": 4397,
      "Ġpicture": 4398,
      "Ġhanging": 4399,
      "Ġprivate": 4400,
      "Ġobliged": 4401,
      "Count": 4402,
      "Her": 4403,
      "gress": 4404,
      "mist": 4405,
      "pic": 4406,
      "ont": 4407,
      "Ġdom": 4408,
      "Ġrequ": 4409,
      "Ġsearch": 4410,
      "ify": 4411,
      "quite": 4412,
      "olonel": 4413,
      "Ġnovel": 4414,
      "ieces": 4415,
      "rinking": 4416,
      "soci": 4417,
      "Ġcarp": 4418,
      "Ãºkhov": 4419,
      "ĠLuzhin": 4420,
      "Ġhurt": 4421,
      "Ġhonest": 4422,
      "Ġuttered": 4423,
      "continu": 4424,
      "edding": 4425,
      "Ġcandle": 4426,
      "Ġintellig": 4427,
      "Ġsupposed": 4428,
      "Ġelder": 4429,
      "Ġvoyage": 4430,
      "ĠGardiner": 4431,
      "ĠFlask": 4432,
      "Did": 4433,
      "EN": 4434,
      "kin": 4435,
      "mas": 4436,
      "Ġobe": 4437,
      "hall": 4438,
      "Ġbod": 4439,
      "Ġfier": 4440,
      "Ġhost": 4441,
      "oward": 4442,
      "urope": 4443,
      "Ġseldom": 4444,
      "ĠDid": 4445,
      "Ġunhappy": 4446,
      "Ġamid": 4447,
      "rene": 4448,
      "Ġremoved": 4449,
      "Ġmighty": 4450,
      "Ġflushed": 4451,
      "Ġdoors": 4452,
      "Ġinstance": 4453,
      "Ġopening": 4454,
      "Ġelb": 4455,
      "Ġactually": 4456,
      "duce": 4457,
      "appro": 4458,
      "ĠBorodinÃ³": 4459,
      "Ġdestroyed": 4460,
      "ĠCharles": 4461,
      "Ġgenius": 4462,
      "Ġsuffered": 4463,
      ",âĢĶ": 4464,
      "KutÃºzov": 4465,
      "Napoleon": 4466,
      "follow": 4467,
      "rÃ©": 4468,
      "ux": 4469,
      "zÃºkhov": 4470,
      "Ġer": 4471,
      "haer": 4472,
      "Ġoffe": 4473,
      "Ġdared": 4474,
      "Ġforty": 4475,
      "ĠMÃ¡rya": 4476,
      "Ġdeb": 4477,
      "Ġshirt": 4478,
      "Ġagreed": 4479,
      "Ġimm": 4480,
      "Ġspeed": 4481,
      "Ġpresently": 4482,
      "ĠStryver": 4483,
      "Ġcapital": 4484,
      "Ġadmit": 4485,
      "hands": 4486,
      "Ġhastily": 4487,
      "arrass": 4488,
      "Ġclouds": 4489,
      "Ġsacrif": 4490,
      "?...": 4491,
      "pir": 4492,
      "Ġax": 4493,
      "Ġwid": 4494,
      "rees": 4495,
      "Ġodd": 4496,
      "Ġbatt": 4497,
      "Ġmatch": 4498,
      "Ġtoss": 4499,
      "Ġcoffin": 4500,
      "Ġhuge": 4501,
      "Ġdignity": 4502,
      "lect": 4503,
      "sec": 4504,
      "Ġstout": 4505,
      "amet": 4506,
      "Ġvic": 4507,
      "Ġliber": 4508,
      "Ġunus": 4509,
      "fee": 4510,
      "Ġprov": 4511,
      "Ġproved": 4512,
      "Ġspend": 4513,
      "Ġparts": 4514,
      "Ġrepres": 4515,
      "Ġhelped": 4516,
      "Ġindic": 4517,
      "Only": 4518,
      "Ġregarded": 4519,
      "Ġplainly": 4520,
      "Ġsinging": 4521,
      "Ġprincip": 4522,
      "steps": 4523,
      "Ġignor": 4524,
      "Tell": 4525,
      "din": 4526,
      "evid": 4527,
      "gment": 4528,
      "kward": 4529,
      "lot": 4530,
      "yard": 4531,
      "Ġoil": 4532,
      "Ġcost": 4533,
      "Ġcott": 4534,
      "asked": 4535,
      "ĠIly": 4536,
      "Ġhero": 4537,
      "Ġstick": 4538,
      "Ġstared": 4539,
      "herlock": 4540,
      "Ġshore": 4541,
      "ptember": 4542,
      "Ġotherwise": 4543,
      "mend": 4544,
      "Ġclass": 4545,
      "aughters": 4546,
      "Ġillness": 4547,
      "Ġapproaching": 4548,
      "Ġaccompl": 4549,
      "turned": 4550,
      "Ġhussars": 4551,
      "fortunate": 4552,
      "Ġcivil": 4553,
      "Ġdeclared": 4554,
      "Ġcommunic": 4555,
      "?âĢĶ": 4556,
      "Having": 4557,
      "OR": 4558,
      "chen": 4559,
      "fam": 4560,
      "five": 4561,
      "hon": 4562,
      "pur": 4563,
      "ued": 4564,
      "hearted": 4565,
      "Ġwise": 4566,
      "ites": 4567,
      "Ġla": 4568,
      "ancy": 4569,
      "Ġphil": 4570,
      "icha": 4571,
      "rose": 4572,
      "Ġweight": 4573,
      "ĠAvdotya": 4574,
      "ĠHave": 4575,
      "Ġleaves": 4576,
      "perhaps": 4577,
      "Ġamuse": 4578,
      "others": 4579,
      "Ġdism": 4580,
      "Ġsilver": 4581,
      "Ġrefuse": 4582,
      "Ġvisible": 4583,
      "Ġabsor": 4584,
      "Ġdangerous": 4585,
      "Ġproperty": 4586,
      "Ġwaters": 4587,
      "Ġgalloped": 4588,
      "Ġcabin": 4589,
      "Ġinnocent": 4590,
      "Mad": 4591,
      "Russi": 4592,
      "ior": 4593,
      "jun": 4594,
      "rust": 4595,
      "rors": 4596,
      "Ġ3": 4597,
      "Ġassu": 4598,
      "raph": 4599,
      "ĠSemyon": 4600,
      "ĠPerhaps": 4601,
      "Ġrate": 4602,
      "Ġrise": 4603,
      "usi": 4604,
      "Ġvague": 4605,
      "Ġaloud": 4606,
      "Ġalarm": 4607,
      "Ġjack": 4608,
      "Ġusually": 4609,
      "arks": 4610,
      "Ġentreat": 4611,
      "attery": 4612,
      "Ġcloak": 4613,
      "Ġdistin": 4614,
      "suff": 4615,
      "Ġlocked": 4616,
      "Ġpersons": 4617,
      "spir": 4618,
      "Ġexcitement": 4619,
      "umbled": 4620,
      "Ġconsiderable": 4621,
      "Ġconcerning": 4622,
      "Ġhaste": 4623,
      "ÃŃtski": 4624,
      "Ġporch": 4625,
      "ĠDmÃŃtrievna": 4626,
      "circ": 4627,
      "matter": 4628,
      "yes": 4629,
      "Ġwra": 4630,
      "rehens": 4631,
      "Ġbra": 4632,
      "Ġfisher": 4633,
      "Ġcred": 4634,
      "Ġhidden": 4635,
      "ator": 4636,
      "Ġseas": 4637,
      "ĠBar": 4638,
      "ĠDu": 4639,
      "Ġcomr": 4640,
      "Ġworking": 4641,
      "ĠJerry": 4642,
      "derer": 4643,
      "Ġgrim": 4644,
      "lessness": 4645,
      "Ġfriendly": 4646,
      "command": 4647,
      "Ġcarrying": 4648,
      "Ġreturning": 4649,
      "Ġrelief": 4650,
      "Ġsigns": 4651,
      "Ġplaying": 4652,
      "Ġmerry": 4653,
      "Ġtorment": 4654,
      "Ġeduc": 4655,
      "Ġgolden": 4656,
      "Ġextraordinary": 4657,
      "ancholy": 4658,
      "Ġnervous": 4659,
      "Are": 4660,
      "DenÃŃsov": 4661,
      "ais": 4662,
      "ien": 4663,
      "Ġsought": 4664,
      "Ġfully": 4665,
      "orse": 4666,
      "orous": 4667,
      "armed": 4668,
      "Ġgently": 4669,
      "stru": 4670,
      "Ġwhist": 4671,
      "aling": 4672,
      "ĠMajesty": 4673,
      "Ġking": 4674,
      "ĠBhaer": 4675,
      "Ġshowing": 4676,
      "Ġrul": 4677,
      "pond": 4678,
      "ĠCar": 4679,
      "ables": 4680,
      "Ġproceed": 4681,
      "Ġdisappeared": 4682,
      "Ġhappens": 4683,
      "ample": 4684,
      "Ġlog": 4685,
      "Ġlock": 4686,
      "Ġkindness": 4687,
      "Ġconfidence": 4688,
      "ounce": 4689,
      "Ġdirected": 4690,
      "ĠBecky": 4691,
      "Ġcrossing": 4692,
      "Ġestate": 4693,
      "bbing": 4694,
      "Ġedge": 4695,
      "Ġpossibly": 4696,
      "Ġgloomy": 4697,
      "occup": 4698,
      "Ġarranged": 4699,
      "Ġcouple": 4700,
      "avalry": 4701,
      "Can": 4702,
      "aul": 4703,
      "sil": 4704,
      "Ġtree": 4705,
      "Ġtakes": 4706,
      "iter": 4707,
      "Ġma": 4708,
      "asya": 4709,
      "anim": 4710,
      "imov": 4711,
      "adually": 4712,
      "Ġwhilst": 4713,
      "Ġstar": 4714,
      "ĠTwo": 4715,
      "ĠPres": 4716,
      "Ġexha": 4717,
      "Ġnobody": 4718,
      "Ġworst": 4719,
      "Ġspout": 4720,
      "Ġspace": 4721,
      "Ġtwelve": 4722,
      "Ġbrown": 4723,
      "Ġgrateful": 4724,
      "many": 4725,
      "Ġcompass": 4726,
      "Ġconsidering": 4727,
      "Ġevidence": 4728,
      "Ġuseful": 4729,
      "whole": 4730,
      "ĠMadam": 4731,
      "Ġsensible": 4732,
      "Ġslightly": 4733,
      "Ġflying": 4734,
      "Ġconsciousness": 4735,
      "While": 4736,
      "ĠSmolÃ©nsk": 4737,
      "ametov": 4738,
      "Will": 4739,
      "boy": 4740,
      "cied": 4741,
      "yr": 4742,
      "Ġwishing": 4743,
      "Ġlot": 4744,
      "Ġghost": 4745,
      "Ġreasons": 4746,
      "alming": 4747,
      "urs": 4748,
      "Ġwearing": 4749,
      "Ġsaved": 4750,
      "Ġshoes": 4751,
      "Ġexer": 4752,
      "ational": 4753,
      "astasya": 4754,
      "acles": 4755,
      "Ġbetray": 4756,
      "Ġclerk": 4757,
      "Ġcountenance": 4758,
      "Ġmarked": 4759,
      "intment": 4760,
      "Ġinstinct": 4761,
      "Ġintention": 4762,
      "fortune": 4763,
      "Ġfinish": 4764,
      "Ġdancing": 4765,
      "Ġcolumn": 4766,
      "Ġresolute": 4767,
      "Ġmusk": 4768,
      "Ġfunny": 4769,
      "Ġgrey": 4770,
      "Ġfirmly": 4771,
      "better": 4772,
      "Ġnodded": 4773,
      "Ġassured": 4774,
      "bin": 4775,
      "bout": 4776,
      "bbed": 4777,
      "jud": 4778,
      "lad": 4779,
      "piece": 4780,
      "uzz": 4781,
      "Ġtight": 4782,
      "Ġactions": 4783,
      "Ġocean": 4784,
      "Ġmate": 4785,
      "Ġhint": 4786,
      "Ġheat": 4787,
      "asped": 4788,
      "arling": 4789,
      "Ġgar": 4790,
      "stra": 4791,
      "Ġsuperior": 4792,
      "ĠSund": 4793,
      "theless": 4794,
      "Ġrough": 4795,
      "unning": 4796,
      "ĠĠĠĠĠ": 4797,
      "Ġprofess": 4798,
      "apa": 4799,
      "white": 4800,
      "Ġhollow": 4801,
      "common": 4802,
      "Ġcalling": 4803,
      "Ġinside": 4804,
      "Ġwalls": 4805,
      "Ġleading": 4806,
      "bourn": 4807,
      "Ġapparently": 4808,
      "Ġgesture": 4809,
      "Ġargum": 4810,
      "ĠRodion": 4811,
      "bing": 4812,
      "covered": 4813,
      "pol": 4814,
      "sent": 4815,
      "eral": 4816,
      "erved": 4817,
      "inging": 4818,
      "Ġcool": 4819,
      "Ġdaughters": 4820,
      "Ġparent": 4821,
      "Ġrevol": 4822,
      "ĠPl": 4823,
      "olation": 4824,
      "Ġroof": 4825,
      "ĠCh": 4826,
      "acc": 4827,
      "Ġgoodness": 4828,
      "Ġgreatly": 4829,
      "Ġadvent": 4830,
      "Ġentering": 4831,
      "clam": 4832,
      "serv": 4833,
      "Ġcorre": 4834,
      "Ġrelation": 4835,
      "ground": 4836,
      "Ġexpecting": 4837,
      "Ġdetails": 4838,
      "Ġrecalled": 4839,
      "Ġmistaken": 4840,
      "going": 4841,
      "ossimov": 4842,
      "Ġstrike": 4843,
      "Ġabsolutely": 4844,
      "Ġsituation": 4845,
      "lotte": 4846,
      "Moscow": 4847,
      "aly": 4848,
      "ially": 4849,
      "ober": 4850,
      "Ġic": 4851,
      "Ġrom": 4852,
      "Ġtempt": 4853,
      "having": 4854,
      "itive": 4855,
      "Ġdawn": 4856,
      "Ġrequest": 4857,
      "urd": 4858,
      "Ġstair": 4859,
      "Ġsho": 4860,
      "ours": 4861,
      "Ġlear": 4862,
      "opy": 4863,
      "acity": 4864,
      "osen": 4865,
      "myself": 4866,
      "Ġturns": 4867,
      "Ġscra": 4868,
      "Ġkeen": 4869,
      "Ġintent": 4870,
      "Ġconfused": 4871,
      "evi": 4872,
      "Ġawkward": 4873,
      "brought": 4874,
      "ĠSeptember": 4875,
      "ĠBezÃºkhov": 4876,
      "Ġplayed": 4877,
      "Ġcharge": 4878,
      "Ġheavily": 4879,
      "Ġembra": 4880,
      "Ġaccompan": 4881,
      "Ġpictures": 4882,
      "Ġsimilar": 4883,
      "ĠBalashÃ«v": 4884,
      "Ġexplanation": 4885,
      "IN": 4886,
      "gir": 4887,
      "ta": 4888,
      "help": 4889,
      "Ġwedding": 4890,
      "Ġbal": 4891,
      "itchen": 4892,
      "enger": 4893,
      "Ġtomorrow": 4894,
      "Ġpicked": 4895,
      "Ġur": 4896,
      "rah": 4897,
      "Ġroubles": 4898,
      "Ġfee": 4899,
      "--âĢľ": 4900,
      "Ġsprang": 4901,
      "ĠEurope": 4902,
      "retch": 4903,
      "incey": 4904,
      "Ġintently": 4905,
      "Ġcareful": 4906,
      "headed": 4907,
      "Ġwolf": 4908,
      "boat": 4909,
      "Ġdevoted": 4910,
      "Ġdreams": 4911,
      "Ġtort": 4912,
      "ajor": 4913,
      "Ġeagerly": 4914,
      "Ġbottle": 4915,
      "Ġjudge": 4916,
      "Ġexistence": 4917,
      "DÃ³lokhov": 4918,
      "leness": 4919,
      "taking": 4920,
      "ulf": 4921,
      "half": 4922,
      "eding": 4923,
      "Ġbul": 4924,
      "itating": 4925,
      "asm": 4926,
      "ential": 4927,
      "ĠAugust": 4928,
      "ĠMore": 4929,
      "ĠSc": 4930,
      "ĠSuch": 4931,
      "Ġdearest": 4932,
      "Ġdogs": 4933,
      "Ġriding": 4934,
      "Ġknife": 4935,
      "ĠDan": 4936,
      "ĠDick": 4937,
      "Ġspare": 4938,
      "Ġproof": 4939,
      "Ġenergy": 4940,
      "cold": 4941,
      "Ġscience": 4942,
      "Ġresp": 4943,
      "Ġrapt": 4944,
      "Ġenth": 4945,
      "ensive": 4946,
      "Ġmoral": 4947,
      "grat": 4948,
      "Ġaware": 4949,
      "Ġnaturally": 4950,
      "Ġtruly": 4951,
      "Ġvisitors": 4952,
      "Ġwooden": 4953,
      "Ġcomfortable": 4954,
      "Ġruin": 4955,
      "Ġ181": 4956,
      "against": 4957,
      "Ġmidst": 4958,
      "Ġpossibility": 4959,
      "ĠWilliam": 4960,
      "Ġvictory": 4961,
      "Ġincreased": 4962,
      "Ġpillow": 4963,
      "Ġvirtue": 4964,
      "morning": 4965,
      "Meg": 4966,
      "ON": 4967,
      "Some": 4968,
      "taken": 4969,
      "vÃ¡n": 4970,
      "wl": 4971,
      "Ġtied": 4972,
      "Ġfill": 4973,
      "Ġfra": 4974,
      "Ġcla": 4975,
      "Ġcup": 4976,
      "Ġhid": 4977,
      "Ġgained": 4978,
      "almost": 4979,
      "rol": 4980,
      "rived": 4981,
      "ĠMe": 4982,
      "ĠFather": 4983,
      "Ġhandkerchief": 4984,
      "aches": 4985,
      "Ġspl": 4986,
      "Ġprof": 4987,
      "Ġchin": 4988,
      "Ġfiring": 4989,
      "Ġraising": 4990,
      "return": 4991,
      "Ġaccident": 4992,
      "standing": 4993,
      "ĠGodalming": 4994,
      "Ġconfusion": 4995,
      "Ġintended": 4996,
      "Ġswim": 4997,
      "Ġgenerals": 4998,
      "Ġinvited": 4999,
      "Ġjoke": 5000,
      "Ġmurm": 5001,
      "appear": 5002,
      "Ġefforts": 5003,
      "Ġhighest": 5004,
      "Ġcarts": 5005,
      "words": 5006,
      "Ġabandoned": 5007,
      "Ġinformation": 5008,
      "Huck": 5009,
      "Thank": 5010,
      "dro": 5011,
      "ivid": 5012,
      "spo": 5013,
      "till": 5014,
      "water": 5015,
      "Ġ4": 5016,
      "Ġwin": 5017,
      "ref": 5018,
      "remon": 5019,
      "itor": 5020,
      "orough": 5021,
      "ental": 5022,
      "ths": 5023,
      "Ġnoise": 5024,
      "Ġprocess": 5025,
      "Ġenorm": 5026,
      "Ġchoose": 5027,
      "Ġthrust": 5028,
      "lesh": 5029,
      "Ġmarch": 5030,
      "Ġansw": 5031,
      "Ġofficial": 5032,
      "Ġgives": 5033,
      "evol": 5034,
      "atson": 5035,
      "Ġcapable": 5036,
      "Ġbreathing": 5037,
      "Ġtorn": 5038,
      "Though": 5039,
      "Ġfifteen": 5040,
      "Ġconcluded": 5041,
      "Ġpossessed": 5042,
      "feeling": 5043,
      "ĠGuards": 5044,
      "ÃŃkhon": 5045,
      "Amy": 5046,
      "Ex": 5047,
      "LE": 5048,
      "Never": 5049,
      "cap": 5050,
      "knew": 5051,
      "list": 5052,
      "ral": 5053,
      "sar": 5054,
      "vals": 5055,
      "Ġoper": 5056,
      "hapter": 5057,
      "Ġlest": 5058,
      "Ġloose": 5059,
      "atures": 5060,
      "Ġgown": 5061,
      "Ġthunder": 5062,
      "told": 5063,
      "istic": 5064,
      "ĠColonel": 5065,
      "shine": 5066,
      "ethod": 5067,
      "Ġhorrible": 5068,
      "Ġretired": 5069,
      "Ġaccustomed": 5070,
      "Ġwaves": 5071,
      "Ġranks": 5072,
      "Ġexchan": 5073,
      "Ġexcuse": 5074,
      "iments": 5075,
      "Ġfinal": 5076,
      "ĠHowever": 5077,
      "Ġstronger": 5078,
      "Ġroads": 5079,
      "umbling": 5080,
      "Ġordinary": 5081,
      "Ġremarkable": 5082,
      "Ġanimated": 5083,
      "Ġconclusion": 5084,
      "Ġsucceeded": 5085,
      "Ġsavage": 5086,
      "Ġmysterious": 5087,
      "necessary": 5088,
      "det": 5089,
      "done": 5090,
      "sister": 5091,
      "uish": 5092,
      "Ġty": 5093,
      "Ġmour": 5094,
      "Ġtoday": 5095,
      "Ġcher": 5096,
      "Ġcavalry": 5097,
      "Ġpardon": 5098,
      "Ġgle": 5099,
      "stone": 5100,
      "adv": 5101,
      "ĠHad": 5102,
      "alling": 5103,
      "ĠSir": 5104,
      "Ġfailed": 5105,
      "Ġunivers": 5106,
      "Ġamiable": 5107,
      "agger": 5108,
      "why": 5109,
      "Ġcontent": 5110,
      "Ġconscience": 5111,
      "Ġentrance": 5112,
      "Ġdistant": 5113,
      "Ġfellows": 5114,
      "cript": 5115,
      "Ġhighly": 5116,
      "Ġlively": 5117,
      "Ġdriven": 5118,
      "natured": 5119,
      "Ġconviction": 5120,
      "Ġinfinite": 5121,
      "ourable": 5122,
      "Ã¡nski": 5123,
      "Ġrecogn": 5124,
      "ĠSuddenly": 5125,
      "Ġphilosop": 5126,
      "Ġenthusi": 5127,
      "bar": 5128,
      "either": 5129,
      "rous": 5130,
      "rate": 5131,
      "uly": 5132,
      "Ġwag": 5133,
      "Ġcord": 5134,
      "Ġdirty": 5135,
      "Ġgreet": 5136,
      "ether": 5137,
      "Ġweary": 5138,
      "Ġhadn": 5139,
      "ppers": 5140,
      "Ġconception": 5141,
      "Ġmanaged": 5142,
      "perÃ¡nski": 5143,
      "ĠCom": 5144,
      "open": 5145,
      "Ġprofound": 5146,
      "ĠOur": 5147,
      "Ġglory": 5148,
      "Ġparted": 5149,
      "Ġdesired": 5150,
      "sold": 5151,
      "exc": 5152,
      "Ġhousehold": 5153,
      "import": 5154,
      "Ġsubst": 5155,
      "Ġsword": 5156,
      "Ġguests": 5157,
      "Ġships": 5158,
      "Ġlessons": 5159,
      "Ġabsent": 5160,
      "Ġdriving": 5161,
      "Ġcharm": 5162,
      "voice": 5163,
      "Ġinfantry": 5164,
      "Ġresolution": 5165,
      "Ġbringing": 5166,
      "Ġcreatures": 5167,
      "Ġestab": 5168,
      "ĠJonah": 5169,
      "Ġsuggest": 5170,
      "Uncle": 5171,
      "business": 5172,
      "igsen": 5173,
      "69": 5174,
      "Sonia": 5175,
      "dark": 5176,
      "find": 5177,
      "inn": 5178,
      "Ġtheory": 5179,
      "Ġbull": 5180,
      "isc": 5181,
      "street": 5182,
      "Ġreceiving": 5183,
      "alous": 5184,
      "alia": 5185,
      "Ġstaring": 5186,
      "keeper": 5187,
      "ctober": 5188,
      "Ġsoot": 5189,
      "ilty": 5190,
      "ĠPip": 5191,
      "Ġshone": 5192,
      "ulse": 5193,
      "ĠWest": 5194,
      "Ġthanks": 5195,
      "shop": 5196,
      "Ġsleeping": 5197,
      "Ġstrangely": 5198,
      "world": 5199,
      "Ġsadd": 5200,
      "Ġgrace": 5201,
      "Ġworthy": 5202,
      "particul": 5203,
      "Ġslipped": 5204,
      "Ġfoolish": 5205,
      "ĠRomanovitch": 5206,
      "Ġtavern": 5207,
      "Ġreproach": 5208,
      "Ġlandlady": 5209,
      "Ġdeparture": 5210,
      "engeance": 5211,
      "Ġoffended": 5212,
      "Ġabsorbed": 5213,
      "Mary": 5214,
      "hur": 5215,
      "swe": 5216,
      "tin": 5217,
      "Ġwrink": 5218,
      "Ġdoub": 5219,
      "Ġdouble": 5220,
      "Ġdarling": 5221,
      "esc": 5222,
      "Ġinformed": 5223,
      "Ġnames": 5224,
      "Ġstuff": 5225,
      "ilÃŃ": 5226,
      "Ġknee": 5227,
      "astic": 5228,
      "agree": 5229,
      "ĠEx": 5230,
      "ĠGeneral": 5231,
      "Ġenv": 5232,
      "Ġbosom": 5233,
      "ildad": 5234,
      "Ġjustice": 5235,
      "Ġwaist": 5236,
      "Ġterri": 5237,
      "Ġawake": 5238,
      "Ġindepend": 5239,
      "Ġforeign": 5240,
      "Ġfancied": 5241,
      "ydney": 5242,
      "Ġdefinite": 5243,
      "Ġdestroy": 5244,
      "Ġuneasy": 5245,
      "iveness": 5246,
      "comfortable": 5247,
      "Ġtaste": 5248,
      "ĠLongbourn": 5249,
      "Ġmaterial": 5250,
      "Ġvessel": 5251,
      "eviathan": 5252,
      "Ġaccompanied": 5253,
      "Ar": 5254,
      "bes": 5255,
      "dri": 5256,
      "gn": 5257,
      "ude": 5258,
      "zh": 5259,
      "ziat": 5260,
      "Ġsway": 5261,
      "reco": 5262,
      "left": 5263,
      "Ġeast": 5264,
      "Ġaspect": 5265,
      "Ġhers": 5266,
      "Ġnoticing": 5267,
      "Ġstoo": 5268,
      "Ġsevent": 5269,
      "Ġnephe": 5270,
      "Ġfears": 5271,
      "ĠWas": 5272,
      "Ġabroad": 5273,
      "Ġagitation": 5274,
      "ofya": 5275,
      "offee": 5276,
      "beziat": 5277,
      "acher": 5278,
      "Ġchosen": 5279,
      "achment": 5280,
      "Ġscr": 5281,
      "Ġrace": 5282,
      "Ġsooner": 5283,
      "Ġinstru": 5284,
      "Ġpainful": 5285,
      "Ġthousands": 5286,
      "Ġfortun": 5287,
      "Ġweakness": 5288,
      "speak": 5289,
      "Ġconnection": 5290,
      "Ġhussar": 5291,
      "Ġnurse": 5292,
      "ĠQuincey": 5293,
      "Ġinvoluntarily": 5294,
      "Ġsuspicion": 5295,
      "Ġperplex": 5296,
      "itizen": 5297,
      "Ġnephew": 5298,
      "beziatnikov": 5299,
      "Perhaps": 5300,
      "brows": 5301,
      "dire": 5302,
      "gest": 5303,
      "ivering": 5304,
      "mo": 5305,
      "mitted": 5306,
      "inally": 5307,
      "Ġwicked": 5308,
      "itively": 5309,
      "Ġdrinking": 5310,
      "Ġbeating": 5311,
      "lying": 5312,
      "Ġyards": 5313,
      "Ġstore": 5314,
      "Ġwealth": 5315,
      "Ġisland": 5316,
      "ĠAre": 5317,
      "ĠMamma": 5318,
      "alley": 5319,
      "Ġkitchen": 5320,
      "Ġupper": 5321,
      "Ġupset": 5322,
      "Ġshrie": 5323,
      "Ġride": 5324,
      "Ġexample": 5325,
      "Ġva": 5326,
      "Ġvac": 5327,
      "ĠWatson": 5328,
      "Ġcomb": 5329,
      "venge": 5330,
      "These": 5331,
      "Ġunfortunate": 5332,
      "Ġafford": 5333,
      "behind": 5334,
      "account": 5335,
      "Ġeverywhere": 5336,
      "Ġtroubled": 5337,
      "Ġ(_": 5338,
      "Ġserve": 5339,
      "Ġserfs": 5340,
      "Ġcheek": 5341,
      "Ġcauses": 5342,
      "Ġterms": 5343,
      "Ġsteady": 5344,
      "Ġemotion": 5345,
      "Ġmercy": 5346,
      "Ġimagined": 5347,
      "Ġimagination": 5348,
      "Ġmurderer": 5349,
      "Ġinquired": 5350,
      "Ġnecessity": 5351,
      "Ġburned": 5352,
      "Ġpatience": 5353,
      "Ġporter": 5354,
      "****": 5355,
      "surpr": 5356,
      "ĠLizzy": 5357,
      "Ãºshin": 5358,
      "far": 5359,
      "four": 5360,
      "jection": 5361,
      "net": 5362,
      "uce": 5363,
      "Ġcards": 5364,
      "Ġheap": 5365,
      "Ġlou": 5366,
      "Ġlone": 5367,
      "Ġpan": 5368,
      "Ġstat": 5369,
      "ĠBerg": 5370,
      "ĠBonaparte": 5371,
      "Ġdozen": 5372,
      "ulous": 5373,
      "Ġrush": 5374,
      "ovich": 5375,
      "Ġvig": 5376,
      "ĠNastasya": 5377,
      "Ġagitated": 5378,
      "Ġunpleasant": 5379,
      "Ġprepar": 5380,
      "Ġshare": 5381,
      "ignific": 5382,
      "Ġdesign": 5383,
      "Ġtear": 5384,
      "Ġsetting": 5385,
      "Ġcleared": 5386,
      "Ġdifference": 5387,
      "Ġneeds": 5388,
      "Ġuseless": 5389,
      "Ġstrongly": 5390,
      "Ġdelightful": 5391,
      "Ġ180": 5392,
      "Ġdelir": 5393,
      "Ġheavens": 5394,
      "ferred": 5395,
      "ĠTellson": 5396,
      "Ġgovernment": 5397,
      "Ġconcerned": 5398,
      "Ġaffected": 5399,
      "Ġgratitude": 5400,
      "Ġmystery": 5401,
      "rÃ©m": 5402,
      "May": 5403,
      "apt": 5404,
      "gan": 5405,
      "pit": 5406,
      "uously": 5407,
      "Ġahead": 5408,
      "Ġsour": 5409,
      "eds": 5410,
      "Ġbows": 5411,
      "Ġmars": 5412,
      "Ġhol": 5413,
      "llen": 5414,
      "Ġdish": 5415,
      "asc": 5416,
      "asing": 5417,
      "aned": 5418,
      "Ġgather": 5419,
      "stem": 5420,
      "strange": 5421,
      "Ġeh": 5422,
      "Ġemer": 5423,
      "Ġthorough": 5424,
      "vert": 5425,
      "Ġnotes": 5426,
      "Ġsty": 5427,
      "Ġsovere": 5428,
      "ĠHaving": 5429,
      "Ġsuite": 5430,
      "ĠSh": 5431,
      "Ġupstairs": 5432,
      "Ġrubb": 5433,
      "ĠTheir": 5434,
      "ĠNever": 5435,
      "Ġanywhere": 5436,
      "Ġaff": 5437,
      "Ã¡rov": 5438,
      "rue": 5439,
      "Ġprospect": 5440,
      "Ġbegged": 5441,
      "Ġlonged": 5442,
      "ĠOctober": 5443,
      "osing": 5444,
      "Ġblank": 5445,
      "Ġflight": 5446,
      "soon": 5447,
      "Ġrage": 5448,
      "Ġentertain": 5449,
      "Ġhoriz": 5450,
      "Ġattract": 5451,
      "respect": 5452,
      "Ġrang": 5453,
      "Ġfamous": 5454,
      "Ġskill": 5455,
      "Ġrecovered": 5456,
      "Ġfourth": 5457,
      "Ġobserve": 5458,
      "Ġembarrass": 5459,
      "ĠZossimov": 5460,
      "Ġenjoyed": 5461,
      "Ġpossession": 5462,
      "Ġvalue": 5463,
      "Ġloudly": 5464,
      "ology": 5465,
      "Ġabandon": 5466,
      "Alice": 5467,
      "Ġsuggested": 5468,
      "acques": 5469,
      "Ġdelicate": 5470,
      "Ġhospital": 5471,
      "Ġexceedingly": 5472,
      "Ġcredit": 5473,
      "ĠSunday": 5474,
      "Ġenormous": 5475,
      "etherfield": 5476,
      "Ġsovereign": 5477,
      "hot": 5478,
      "iving": 5479,
      "iary": 5480,
      "pon": 5481,
      "sus": 5482,
      "ule": 5483,
      "wife": 5484,
      "inated": 5485,
      "inished": 5486,
      "hast": 5487,
      "Ġbill": 5488,
      "iture": 5489,
      "Ġcoffee": 5490,
      "ese": 5491,
      "Ġpowers": 5492,
      "ĠIvÃ¡n": 5493,
      "owards": 5494,
      "utation": 5495,
      "enter": 5496,
      "verse": 5497,
      "Ġrear": 5498,
      "urance": 5499,
      "Ġstories": 5500,
      "Ġancient": 5501,
      "Ġsober": 5502,
      "ĠMonseigneur": 5503,
      "ighted": 5504,
      "Ġconve": 5505,
      "asted": 5506,
      "ĠCon": 5507,
      "ĠKitty": 5508,
      "Ġpron": 5509,
      "Ġraise": 5510,
      "Ġimpress": 5511,
      "Ã©ra": 5512,
      "Ġrank": 5513,
      "Ġabsurd": 5514,
      "Ġclosely": 5515,
      "themselves": 5516,
      "Ġutmost": 5517,
      "Ġfigures": 5518,
      "Ġeleg": 5519,
      "Ġstriking": 5520,
      "Ġboxes": 5521,
      "viour": 5522,
      "eddy": 5523,
      "whether": 5524,
      "Ġmelancholy": 5525,
      "Ġbecoming": 5526,
      "ĠMoby": 5527,
      "ividual": 5528,
      "Beth": 5529,
      "cred": 5530,
      "char": 5531,
      "foot": 5532,
      "gave": 5533,
      "ipped": 5534,
      "nor": 5535,
      "pse": 5536,
      "sleep": 5537,
      "vÃŃtski": 5538,
      "wed": 5539,
      "Ġwarn": 5540,
      "Ġbir": 5541,
      "esvÃŃtski": 5542,
      "Ġpot": 5543,
      "Ġpress": 5544,
      "âĢĿâĢĶ": 5545,
      "alities": 5546,
      "Ġseam": 5547,
      "ifference": 5548,
      "thousand": 5549,
      "Ġdoll": 5550,
      "ulie": 5551,
      "Ġmanif": 5552,
      "ouring": 5553,
      "iend": 5554,
      "Ġwhenever": 5555,
      "possess": 5556,
      "Ġprecise": 5557,
      "dec": 5558,
      "Ġdisp": 5559,
      "Ġremains": 5560,
      "Ġchase": 5561,
      "Ġattitude": 5562,
      "Ġdragged": 5563,
      "Ġbelief": 5564,
      "Ġrefer": 5565,
      "Ġrefused": 5566,
      "ĠMarquis": 5567,
      "Ġwoke": 5568,
      "plain": 5569,
      "Ġskin": 5570,
      "Ġrecord": 5571,
      "Ġstayed": 5572,
      "Ġfuneral": 5573,
      "Ġsquare": 5574,
      "glass": 5575,
      "Ġremarks": 5576,
      "Ġbenef": 5577,
      "expression": 5578,
      "Ġdemanded": 5579,
      "break": 5580,
      "Ġastonishment": 5581,
      "Ġstruggle": 5582,
      "Ġaxe": 5583,
      "bu": 5584,
      "care": 5585,
      "cried": 5586,
      "ds": 5587,
      "een": 5588,
      "gener": 5589,
      "prom": 5590,
      "post": 5591,
      "power": 5592,
      "rather": 5593,
      "Ġtest": 5594,
      "Ġtale": 5595,
      "Ġbund": 5596,
      "Ġbattery": 5597,
      "Ġfem": 5598,
      "Ġcell": 5599,
      "Ġcunning": 5600,
      "Ġhither": 5601,
      "Ġdrown": 5602,
      "Ġpin": 5603,
      "oms": 5604,
      "Ġga": 5605,
      "ads": 5606,
      "riages": 5607,
      "ĠHills": 5608,
      "ckets": 5609,
      "ĠSat": 5610,
      "Ġshru": 5611,
      "anting": 5612,
      "Ġroll": 5613,
      "Ġarrest": 5614,
      "Ġpropos": 5615,
      "Ġbrow": 5616,
      "ĠOld": 5617,
      "icken": 5618,
      "Ġfriendship": 5619,
      "Ġended": 5620,
      "Ġlighted": 5621,
      "Ġsupport": 5622,
      "Ġconfir": 5623,
      "Ġsunset": 5624,
      "Ġsouls": 5625,
      "Ġbreaking": 5626,
      "Ġpolite": 5627,
      "chant": 5628,
      "Ġdestruction": 5629,
      "Ġhumanity": 5630,
      "ĠPetrovna": 5631,
      "ĠZametov": 5632,
      "Ġreflected": 5633,
      "Ġexamined": 5634,
      "between": 5635,
      "Ġmidnight": 5636,
      "Ġtrembled": 5637,
      "Ġmortal": 5638,
      "ĠMorris": 5639,
      "faced": 5640,
      "Bec": 5641,
      "Su": 5642,
      "aited": 5643,
      "both": 5644,
      "dep": 5645,
      "fur": 5646,
      "home": 5647,
      "mast": 5648,
      "opp": 5649,
      "uable": 5650,
      "Ġaid": 5651,
      "ouch": 5652,
      "Ġbree": 5653,
      "Ġfrank": 5654,
      "Ġtomb": 5655,
      "Ġhut": 5656,
      "Ġlat": 5657,
      "Ġlately": 5658,
      "ĠIII": 5659,
      "icles": 5660,
      "illery": 5661,
      "ĠMicha": 5662,
      "alls": 5663,
      "ĠSp": 5664,
      "ĠPolly": 5665,
      "ĠHeaven": 5666,
      "isting": 5667,
      "eling": 5668,
      "poor": 5669,
      "Ġpop": 5670,
      "Ġproceeded": 5671,
      "Ġthinks": 5672,
      "Ġcompar": 5673,
      "Ġconsent": 5674,
      "conversation": 5675,
      "Ġseriously": 5676,
      "Ġsilk": 5677,
      "Ġintense": 5678,
      "Ġstead": 5679,
      "ĠMarfa": 5680,
      "Ġlesson": 5681,
      "Ġinsisted": 5682,
      "Ġtransp": 5683,
      "Ġsquee": 5684,
      "Ġbuy": 5685,
      "Ġdescribed": 5686,
      "Ġhungry": 5687,
      "Ġbirds": 5688,
      "ĠCossacks": 5689,
      "Ġfolded": 5690,
      "ĠPeleg": 5691,
      "Ġwelcome": 5692,
      ";âĢĶ": 5693,
      "Bor": 5694,
      "ibility": 5695,
      "rot": 5696,
      "sl": 5697,
      "since": 5698,
      "simp": 5699,
      "Ġ5": 5700,
      "Ġsilly": 5701,
      "Ġoars": 5702,
      "eng": 5703,
      "orious": 5704,
      "Ġdig": 5705,
      "Ġinhabit": 5706,
      "Ġpisto": 5707,
      "Ġbearing": 5708,
      "Ġassemb": 5709,
      "Ġweep": 5710,
      "Ġweap": 5711,
      "ĠAd": 5712,
      "ĠSid": 5713,
      "ĠSperÃ¡nski": 5714,
      "ĠSofya": 5715,
      "arded": 5716,
      "unted": 5717,
      "Ġagony": 5718,
      "Ġamb": 5719,
      "Ã¡r": 5720,
      "Ġproposed": 5721,
      "Ġgradually": 5722,
      "Ġmaybe": 5723,
      "Ġbeloved": 5724,
      "Ġcloser": 5725,
      "sued": 5726,
      "Ġswall": 5727,
      "Ġassumed": 5728,
      "brother": 5729,
      "Ġswear": 5730,
      "ĠThree": 5731,
      "Ġpoints": 5732,
      "Ġwoods": 5733,
      "Ġequally": 5734,
      "Ġoccasionally": 5735,
      "Ġfighting": 5736,
      "Ġharpoon": 5737,
      "Ġcastle": 5738,
      "Ġviolent": 5739,
      "Ġvanished": 5740,
      "Ġfrowning": 5741,
      "ĠChristmas": 5742,
      "ĠAustrian": 5743,
      "ĠSometimes": 5744,
      "ilÃŃbin": 5745,
      "Because": 5746,
      "!...âĢĿ": 5747,
      "Am": 5748,
      "Dr": 5749,
      "hist": 5750,
      "kÃ³v": 5751,
      "lished": 5752,
      "mir": 5753,
      "sol": 5754,
      "sac": 5755,
      "yÃ¡": 5756,
      "Ġtick": 5757,
      "rehe": 5758,
      "Ġdip": 5759,
      "ĠII": 5760,
      "Ġbeast": 5761,
      "uries": 5762,
      "Ġsaf": 5763,
      "ille": 5764,
      "quet": 5765,
      "Ġdecl": 5766,
      "ĠBildad": 5767,
      "Ġshy": 5768,
      "Ġshining": 5769,
      "ulated": 5770,
      "--âĢĿ": 5771,
      "Ġrope": 5772,
      "Ġshape": 5773,
      "Ġproject": 5774,
      "ires": 5775,
      "tyard": 5776,
      "ĠKur": 5777,
      "Ġhole": 5778,
      "udge": 5779,
      "Ġobst": 5780,
      "Ġnights": 5781,
      "Ġdistress": 5782,
      "sky": 5783,
      "Ġintimate": 5784,
      "mbers": 5785,
      "Ġindign": 5786,
      "Ġlads": 5787,
      "Ġcrowded": 5788,
      "however": 5789,
      "Ġbadly": 5790,
      "Ġdining": 5791,
      "Ġmadame": 5792,
      "Ġduties": 5793,
      "Ġsummon": 5794,
      "Ġrude": 5795,
      "Ġquarters": 5796,
      "Ġsettle": 5797,
      "Ġgracious": 5798,
      "ĠEverything": 5799,
      "Ġdeserted": 5800,
      "Ġbench": 5801,
      "person": 5802,
      "Ġconceal": 5803,
      "minded": 5804,
      "Ġcoachman": 5805,
      "satisfied": 5806,
      "Ġsignificance": 5807,
      "ĠNikol": 5808,
      "Ġappointed": 5809,
      "ES": 5810,
      "IL": 5811,
      "Me": 5812,
      "Please": 5813,
      "gy": 5814,
      "lom": 5815,
      "rated": 5816,
      "ugh": 5817,
      "Ã¦": 5818,
      "Ġacted": 5819,
      "erves": 5820,
      "Ġbon": 5821,
      "Ġmajor": 5822,
      "Ġmethod": 5823,
      "Ġfulf": 5824,
      "Ġpil": 5825,
      "Ġpieces": 5826,
      "Ġech": 5827,
      "verty": 5828,
      "Ġreception": 5829,
      "riot": 5830,
      "Ġmeas": 5831,
      "ĠSch": 5832,
      "quiet": 5833,
      "blem": 5834,
      "Ġrow": 5835,
      "empl": 5836,
      "elled": 5837,
      "ountain": 5838,
      "Ġshade": 5839,
      "Ġperform": 5840,
      "Ġplenty": 5841,
      "everal": 5842,
      "days": 5843,
      "Ġrested": 5844,
      "hope": 5845,
      "heads": 5846,
      "Ġinterview": 5847,
      "Ġnative": 5848,
      "Ġindifferent": 5849,
      "does": 5850,
      "Ġchiefly": 5851,
      "ĠBennigsen": 5852,
      "cannot": 5853,
      "Ġsensation": 5854,
      "Ġprayer": 5855,
      "Ġpulling": 5856,
      "Ġanimal": 5857,
      "Ġfrost": 5858,
      "ĠLucas": 5859,
      "Ġconnected": 5860,
      "quarters": 5861,
      "Ġparents": 5862,
      "Ġlonely": 5863,
      "Ġstyle": 5864,
      "Ġhorizon": 5865,
      ".'": 5866,
      "Two": 5867,
      "daughter": 5868,
      "eem": 5869,
      "fashion": 5870,
      "gen": 5871,
      "rained": 5872,
      "vest": 5873,
      "Ġtip": 5874,
      "Ġarose": 5875,
      "hales": 5876,
      "Ġmat": 5877,
      "Ġclaim": 5878,
      "Ġhind": 5879,
      "Ġder": 5880,
      "Ġonto": 5881,
      "Ġrecom": 5882,
      "adron": 5883,
      "Ġwhir": 5884,
      "along": 5885,
      "Ġstretched": 5886,
      "ools": 5887,
      "cture": 5888,
      "ifying": 5889,
      "among": 5890,
      "ĠHim": 5891,
      "ĠSaint": 5892,
      "ili": 5893,
      "Ġshop": 5894,
      "Ġnearest": 5895,
      "Ġfeatures": 5896,
      "estic": 5897,
      "Ġrolling": 5898,
      "ode": 5899,
      "Ġsomebody": 5900,
      "Ġshake": 5901,
      "Ġpeep": 5902,
      "Ġthrowing": 5903,
      "uding": 5904,
      "Ġtrick": 5905,
      "Ġpace": 5906,
      "licity": 5907,
      "Ġsecure": 5908,
      "Ġcondem": 5909,
      "Ġtrial": 5910,
      "Ġpolic": 5911,
      "Ġburied": 5912,
      "Ġfreely": 5913,
      "Ġengagement": 5914,
      "ĠWhile": 5915,
      "Ġcalmly": 5916,
      "Ġsolitary": 5917,
      "Ġmounted": 5918,
      "Ġdescribe": 5919,
      "Ġmoonlight": 5920,
      "Ġsmooth": 5921,
      "Ġtimidly": 5922,
      "window": 5923,
      "children": 5924,
      "Ġrubles": 5925,
      "UR": 5926,
      "dest": 5927,
      "io": 5928,
      "ipp": 5929,
      "whis": 5930,
      "Ġack": 5931,
      "Ġborn": 5932,
      "Ġdamp": 5933,
      "especially": 5934,
      "Ġpressing": 5935,
      "lected": 5936,
      "owder": 5937,
      "otter": 5938,
      "Ġgrie": 5939,
      "Ġet": 5940,
      "Ġreward": 5941,
      "Ġstiff": 5942,
      "ĠTÃŃkhon": 5943,
      "ĠTsar": 5944,
      "ifted": 5945,
      "ĠHar": 5946,
      "ulted": 5947,
      "ularly": 5948,
      "Ġrad": 5949,
      "Ġcongrat": 5950,
      "isten": 5951,
      "Ã¡s": 5952,
      "dear": 5953,
      "Ġtend": 5954,
      "Ġclut": 5955,
      "atÃ¡ev": 5956,
      "compre": 5957,
      "Ġattached": 5958,
      "Ġendure": 5959,
      "Ġwaved": 5960,
      "Ġguilty": 5961,
      "gram": 5962,
      "Ġcrit": 5963,
      "Ġmisfortune": 5964,
      "Ġdanced": 5965,
      "ification": 5966,
      "Ġstraw": 5967,
      "Ġsufficient": 5968,
      "Ġtrace": 5969,
      "yourself": 5970,
      "Ġdespite": 5971,
      "Ġcollect": 5972,
      "ĠCharlotte": 5973,
      "Ġbelonged": 5974,
      "Ġseparate": 5975,
      "Ġintellect": 5976,
      "Ġpaces": 5977,
      "ĠIndian": 5978,
      "Ġfrequently": 5979,
      "Ġdeliber": 5980,
      "Ġacknow": 5981,
      "IS": 5982,
      "Lord": 5983,
      "different": 5984,
      "iance": 5985,
      "ki": 5986,
      "lim": 5987,
      "lay": 5988,
      "Ġaut": 5989,
      "erous": 5990,
      "inger": 5991,
      "enough": 5992,
      "Ġdarted": 5993,
      "atory": 5994,
      "Ġnarr": 5995,
      "alone": 5996,
      "Ġforb": 5997,
      "hern": 5998,
      "Ġwept": 5999,
      "ĠMur": 6000,
      "ĠSte": 6001,
      "ssip": 6002,
      "quick": 6003,
      "emb": 6004,
      "Ġnois": 6005,
      "ĠNetherfield": 6006,
      "orts": 6007,
      "ĠLeviathan": 6008,
      "lier": 6009,
      "Ġseeking": 6010,
      "Ġovercome": 6011,
      "Ġspy": 6012,
      "Ġprogress": 6013,
      "Ġenvelo": 6014,
      "Ġblushed": 6015,
      "Ġteach": 6016,
      "ĠVÃ©ra": 6017,
      "Ġclim": 6018,
      "Ġcommiss": 6019,
      "attention": 6020,
      "atching": 6021,
      "Ġrelig": 6022,
      "Ġsounded": 6023,
      "Ġswept": 6024,
      "Ġdeparted": 6025,
      "Ġconsideration": 6026,
      "remember": 6027,
      "Ġ1869": 6028,
      "pleasure": 6029,
      "Ġlift": 6030,
      "Ġslip": 6031,
      "Ġaffectionate": 6032,
      "Ġblessed": 6033,
      "Ġceremon": 6034,
      "Ġvictim": 6035,
      "present": 6036,
      "Ġpursued": 6037,
      "Ġpursuit": 6038,
      "Ġcounter": 6039,
      "Ġdisturbed": 6040,
      "Ġemployed": 6041,
      "Ġextremely": 6042,
      "Ġpraise": 6043,
      "gentleman": 6044,
      "Ġharpooneer": 6045,
      "Ġbattal": 6046,
      "evidently": 6047,
      "Ġexhausted": 6048,
      "AN": 6049,
      "Aye": 6050,
      "Dear": 6051,
      "Sh": 6052,
      "general": 6053,
      "mel": 6054,
      "vil": 6055,
      "ittering": 6056,
      "Ġlin": 6057,
      "Ġgain": 6058,
      "stri": 6059,
      "Ġwithdra": 6060,
      "Ġattended": 6061,
      "pel": 6062,
      "ĠSherlock": 6063,
      "unk": 6064,
      "Ġlip": 6065,
      "Ġrosy": 6066,
      "Ġwilling": 6067,
      "oping": 6068,
      "ĠJacques": 6069,
      "ĠJulie": 6070,
      "ĠEr": 6071,
      "Ġdisplay": 6072,
      "Ġcover": 6073,
      "Ġsurface": 6074,
      "Ġappears": 6075,
      "Ġsunshine": 6076,
      "Ġbedroom": 6077,
      "Ġsentence": 6078,
      "Ġsurely": 6079,
      "Ġanguish": 6080,
      "Ġarrive": 6081,
      "Ġfury": 6082,
      "Ġeyebrows": 6083,
      "Ġapproach": 6084,
      "smile": 6085,
      "Ġsocial": 6086,
      "Ġpreparing": 6087,
      "Ġcircumstance": 6088,
      "Ġinquiry": 6089,
      "Ġsternly": 6090,
      "Ġneighbor": 6091,
      "Ġcaptured": 6092,
      "Ġutterly": 6093,
      "Ġwondered": 6094,
      "Ġinevit": 6095,
      "Ġbuilding": 6096,
      "Ġunusual": 6097,
      "ĠSemyonovna": 6098,
      "Le": 6099,
      "liness": 6100,
      "met": 6101,
      "och": 6102,
      "rise": 6103,
      "tor": 6104,
      "Ã¼": 6105,
      "ĠâĢĶ_": 6106,
      "Ġav": 6107,
      "Ġbase": 6108,
      "Ġbones": 6109,
      "Ġmud": 6110,
      "Ġtow": 6111,
      "asping": 6112,
      "Ġlord": 6113,
      "Ġpier": 6114,
      "Ġpuff": 6115,
      "imag": 6116,
      "Ġgent": 6117,
      "Ġreaching": 6118,
      "urrah": 6119,
      "ĠTÃºshin": 6120,
      "ĠTeddy": 6121,
      "Ġsees": 6122,
      "ĠPoor": 6123,
      "Ġdoct": 6124,
      "ulation": 6125,
      "Ġwholly": 6126,
      "ofty": 6127,
      "Ġpreviously": 6128,
      "Ġsmart": 6129,
      "Ġcoast": 6130,
      "aveta": 6131,
      "Ġpartner": 6132,
      "Ġgets": 6133,
      "Ġrepla": 6134,
      "Ġflour": 6135,
      "Ġfeels": 6136,
      "Ġobvious": 6137,
      "Ġclock": 6138,
      "resist": 6139,
      "Ġwhalemen": 6140,
      "Ġlover": 6141,
      "Ġreadily": 6142,
      "ivory": 6143,
      "Ġdropping": 6144,
      "Ġindividual": 6145,
      "Ġfearful": 6146,
      "Ġconditions": 6147,
      "letter": 6148,
      "Ġwondering": 6149,
      "Ġartillery": 6150,
      "Ġselfish": 6151,
      "Ġcontrad": 6152,
      "Ġhoping": 6153,
      "Ġmountains": 6154,
      "earth": 6155,
      "Ġinquiries": 6156,
      "Ġdrunken": 6157,
      "Before": 6158,
      "Ġaccepted": 6159,
      "Ġtreated": 6160,
      "Ġunexpectedly": 6161,
      "course": 6162,
      "twenty": 6163,
      "Ġlanguage": 6164,
      "Ġdesperate": 6165,
      "Ġsacrifice": 6166,
      "Ġeducation": 6167,
      "Ġstaircase": 6168,
      "OO": 6169,
      "Que": 6170,
      "Take": 6171,
      "XX": 6172,
      "high": 6173,
      "pany": 6174,
      "Ġtaught": 6175,
      "Ġwest": 6176,
      "requ": 6177,
      "Ġbas": 6178,
      "Ġbrief": 6179,
      "Ġtore": 6180,
      "Ġlofty": 6181,
      "antern": 6182,
      "utter": 6183,
      "imon": 6184,
      "ids": 6185,
      "Ġec": 6186,
      "Ġassoci": 6187,
      "urred": 6188,
      "urday": 6189,
      "Ġstage": 6190,
      "Ġant": 6191,
      "ĠTake": 6192,
      "amps": 6193,
      "ĠHigh": 6194,
      "ĠSw": 6195,
      "ĠPer": 6196,
      "ĠBog": 6197,
      "laugh": 6198,
      "ĠRight": 6199,
      "liest": 6200,
      "deep": 6201,
      "Ġletting": 6202,
      "Ġflung": 6203,
      "Ġmarrying": 6204,
      "Ġserved": 6205,
      "Ġminds": 6206,
      "Ġcourtyard": 6207,
      "Ġcrown": 6208,
      "Ġstock": 6209,
      "Ġstopping": 6210,
      "ounter": 6211,
      "Ġribb": 6212,
      "ĠBefore": 6213,
      "Ġadmire": 6214,
      "Ġobservation": 6215,
      "Ġvivid": 6216,
      "Ġframe": 6217,
      "Ġbehaviour": 6218,
      "Ġconsequence": 6219,
      "Ġfavorite": 6220,
      "Ġtriumph": 6221,
      "Ġdistinctly": 6222,
      "circumst": 6223,
      "Ġexercise": 6224,
      "agreeable": 6225,
      "Again": 6226,
      "Char": 6227,
      "Ind": 6228,
      "black": 6229,
      "creat": 6230,
      "dig": 6231,
      "fell": 6232,
      "name": 6233,
      "sue": 6234,
      "inate": 6235,
      "Ġsize": 6236,
      "isp": 6237,
      "Ġflesh": 6238,
      "enka": 6239,
      "Ġcries": 6240,
      "Ġhom": 6241,
      "Ġded": 6242,
      "Ġhell": 6243,
      "Ġloves": 6244,
      "Ġlosing": 6245,
      "Ġinner": 6246,
      "Ġpure": 6247,
      "Ġphr": 6248,
      "Ġpuzz": 6249,
      "atched": 6250,
      "ĠIV": 6251,
      "otted": 6252,
      "Ġresemb": 6253,
      "iring": 6254,
      "Ġforms": 6255,
      "rait": 6256,
      "ulate": 6257,
      "Ġconvers": 6258,
      "Ġard": 6259,
      "Ġarmed": 6260,
      "Ġpreced": 6261,
      "Ġspark": 6262,
      "attering": 6263,
      "asket": 6264,
      "ension": 6265,
      "ĠInjun": 6266,
      "noe": 6267,
      "Ġstands": 6268,
      "Ġrelated": 6269,
      "Ġcurtain": 6270,
      "Ġinvitation": 6271,
      "Ġinterests": 6272,
      "locked": 6273,
      "ograph": 6274,
      "lerval": 6275,
      "happiness": 6276,
      "Ġcrack": 6277,
      "Ġdiary": 6278,
      "Ġacquainted": 6279,
      "obser": 6280,
      "Ġformerly": 6281,
      "Ġslightest": 6282,
      "Another": 6283,
      "human": 6284,
      "ĠLebeziatnikov": 6285,
      "Ġwrapped": 6286,
      "Ġprofession": 6287,
      ".,": 6288,
      "During": 6289,
      "Re": 6290,
      "See": 6291,
      "action": 6292,
      "dress": 6293,
      "gone": 6294,
      "iber": 6295,
      "pret": 6296,
      "ram": 6297,
      "sail": 6298,
      "war": 6299,
      "want": 6300,
      "hether": 6301,
      "haired": 6302,
      "isk": 6303,
      "Ġfled": 6304,
      "Ġhiding": 6305,
      "asy": 6306,
      "Ġlack": 6307,
      "anger": 6308,
      "Ġinvent": 6309,
      "stud": 6310,
      "stead": 6311,
      "Ġelo": 6312,
      "Ġmeasure": 6313,
      "ĠSydney": 6314,
      "ĠPr": 6315,
      "ĠPhil": 6316,
      "emi": 6317,
      "Ġnoon": 6318,
      "ĠNesvÃŃtski": 6319,
      "possi": 6320,
      "Ġdownstairs": 6321,
      "Ġpartly": 6322,
      "Ġholy": 6323,
      "Ġcarriages": 6324,
      "Ġawaiting": 6325,
      "Ġsteep": 6326,
      "Ġtreasure": 6327,
      "Ġreality": 6328,
      "Ġdoubts": 6329,
      "Ġmovements": 6330,
      "Ġrule": 6331,
      "pleased": 6332,
      "Ġcontrast": 6333,
      "strong": 6334,
      "Ġpriest": 6335,
      "Ġsnuff": 6336,
      "Ġsharply": 6337,
      "Ġgravely": 6338,
      "Ġreflect": 6339,
      "ĠXXX": 6340,
      "Ġshadows": 6341,
      "Ġmodest": 6342,
      "Ġdivine": 6343,
      "Ġprotect": 6344,
      "Ġdiscovery": 6345,
      "Ġscreamed": 6346,
      "Ġadmiration": 6347,
      "Ġoriginal": 6348,
      "Ġwidow": 6349,
      "Ġcompassion": 6350,
      "ĠKurÃ¡gin": 6351,
      ".âĢĶ": 6352,
      "Emperor": 6353,
      "Nor": 6354,
      "Next": 6355,
      "inqu": 6356,
      "rels": 6357,
      "Ġbought": 6358,
      "iteness": 6359,
      "ishes": 6360,
      "Ġbehold": 6361,
      "Ġbewild": 6362,
      "ĠTHE": 6363,
      "ĠMock": 6364,
      "ĠHun": 6365,
      "olves": 6366,
      "Ġfeather": 6367,
      "ĠWould": 6368,
      "Ġlevel": 6369,
      "Ġrock": 6370,
      "Ġarch": 6371,
      "feet": 6372,
      "abs": 6373,
      "aping": 6374,
      "forward": 6375,
      "Ġblows": 6376,
      "Ġparties": 6377,
      "Ġtroubles": 6378,
      "experi": 6379,
      "Ġheartily": 6380,
      "Ġseries": 6381,
      "Ġsurround": 6382,
      "Ġcorres": 6383,
      "Ġdecide": 6384,
      "Ġlaying": 6385,
      "eva": 6386,
      "grim": 6387,
      "Ġvisited": 6388,
      "eryton": 6389,
      "Ġdriver": 6390,
      "Ġjoyful": 6391,
      "Ġsadly": 6392,
      "years": 6393,
      "small": 6394,
      "Ġsquadron": 6395,
      "Ġcraft": 6396,
      "Ġslee": 6397,
      "blood": 6398,
      "Ġviews": 6399,
      "Ġstarting": 6400,
      "Ġremaining": 6401,
      "ĠNothing": 6402,
      "Ġtenderly": 6403,
      "saying": 6404,
      "added": 6405,
      "Ġvanity": 6406,
      "Ġgovernor": 6407,
      "Ġfurniture": 6408,
      "Ġattentively": 6409,
      "Ġdiscover": 6410,
      "ĠAmerican": 6411,
      "Ġcriminal": 6412,
      "Ġjealous": 6413,
      "Ġ1812": 6414,
      "BorÃŃs": 6415,
      "Ġsafety": 6416,
      "ĠNikolay": 6417,
      "bber": 6418,
      "bits": 6419,
      "eff": 6420,
      "full": 6421,
      "pen": 6422,
      "sure": 6423,
      "Ġ6": 6424,
      "Ġaye": 6425,
      "Ġming": 6426,
      "Ġfiend": 6427,
      "enes": 6428,
      "Ġcard": 6429,
      "Ġcig": 6430,
      "Ġdaily": 6431,
      "Ġpir": 6432,
      "idel": 6433,
      "Ġeating": 6434,
      "already": 6435,
      "rive": 6436,
      "anded": 6437,
      "Ġsear": 6438,
      "ĠAra": 6439,
      "ĠAgain": 6440,
      "Ġdeeper": 6441,
      "ĠBel": 6442,
      "ĠBald": 6443,
      "Ġknitting": 6444,
      "Ġalarmed": 6445,
      "Ġmanage": 6446,
      "uming": 6447,
      "Ġgossip": 6448,
      "Ġjury": 6449,
      "acious": 6450,
      "Ġproc": 6451,
      "manner": 6452,
      "whom": 6453,
      "Ġscrew": 6454,
      "Ġlasted": 6455,
      "ĠVI": 6456,
      "Ġstrain": 6457,
      "posure": 6458,
      "ĠThose": 6459,
      "change": 6460,
      "lerable": 6461,
      "Ġconcent": 6462,
      "Ġsystem": 6463,
      "sometimes": 6464,
      "phon": 6465,
      "athetic": 6466,
      "Ġmissing": 6467,
      "Ġfatal": 6468,
      "ridor": 6469,
      "Ġseparated": 6470,
      "believe": 6471,
      "Ġrecognized": 6472,
      "ributed": 6473,
      "occupied": 6474,
      "Ġembraced": 6475,
      "Ġfeeble": 6476,
      "Ġenthusiasm": 6477,
      "Ġinhabitants": 6478,
      "Car": 6479,
      "Dounia": 6480,
      "fy": 6481,
      "giving": 6482,
      "sw": 6483,
      "sun": 6484,
      "tran": 6485,
      "Ġtur": 6486,
      "Ġtones": 6487,
      "hered": 6488,
      "Ġsink": 6489,
      "Ġwave": 6490,
      "Ġfru": 6491,
      "Ġlap": 6492,
      "Ġnum": 6493,
      "Ġge": 6494,
      "Ġasce": 6495,
      "Ġwhip": 6496,
      "rier": 6497,
      "Ġate": 6498,
      "Ġangel": 6499,
      "keep": 6500,
      "Ġseason": 6501,
      "pended": 6502,
      "Ġroused": 6503,
      "usions": 6504,
      "Ġvice": 6505,
      "Ġmankind": 6506,
      "astle": 6507,
      "ryphon": 6508,
      "Ġfacing": 6509,
      "point": 6510,
      "Ġunnatural": 6511,
      "tego": 6512,
      "Ġpoverty": 6513,
      "aret": 6514,
      "ounted": 6515,
      "Ġchim": 6516,
      "Ġshouldn": 6517,
      "Ġhappening": 6518,
      "Ġclub": 6519,
      "conv": 6520,
      "reading": 6521,
      "Ġlights": 6522,
      "prison": 6523,
      "Ġconfident": 6524,
      "ashtego": 6525,
      "emberley": 6526,
      "Ġpurcha": 6527,
      "Ġsunk": 6528,
      "Ġsteward": 6529,
      "Ġshouts": 6530,
      "Ġactive": 6531,
      "brary": 6532,
      "Ġjolly": 6533,
      "Ġdetail": 6534,
      "Ġadmitted": 6535,
      "Ġrespectfully": 6536,
      "Ġstaying": 6537,
      "Ġcutting": 6538,
      "Ġlifting": 6539,
      "Ġfortnight": 6540,
      "Ġballs": 6541,
      "Ġbuilt": 6542,
      "Ġescaped": 6543,
      "Ġprepare": 6544,
      "Ġauthority": 6545,
      "Ġspectacles": 6546,
      "Ġknocked": 6547,
      "Ġhammer": 6548,
      "Ġfetch": 6549,
      "continued": 6550,
      "Ġrepresent": 6551,
      "family": 6552,
      "Ġjacket": 6553,
      "ĠPresently": 6554,
      "clamation": 6555,
      "Ġpistol": 6556,
      "De": 6557,
      "event": 6558,
      "gue": 6559,
      "oh": 6560,
      "uz": 6561,
      "vity": 6562,
      "won": 6563,
      "Ġslo": 6564,
      "rec": 6565,
      "Ġbla": 6566,
      "Ġmile": 6567,
      "Ġfer": 6568,
      "Ġdrank": 6569,
      "asions": 6570,
      "ashes": 6571,
      "Ġhal": 6572,
      "Ġstuck": 6573,
      "Ġsand": 6574,
      "Ġsobs": 6575,
      "Ġshel": 6576,
      "ĠHatter": 6577,
      "Ġexper": 6578,
      "Ġaloft": 6579,
      "Ġcomposed": 6580,
      "ĠRep": 6581,
      "Ġunlike": 6582,
      "Ġuncertain": 6583,
      "Ġuncomfortable": 6584,
      "aud": 6585,
      "Ġpoet": 6586,
      "aging": 6587,
      "Ã¡d": 6588,
      "Ġgloves": 6589,
      "Ġflame": 6590,
      "udes": 6591,
      "Ġrags": 6592,
      "Ġobli": 6593,
      "Ġaccur": 6594,
      "Ġclosing": 6595,
      "clay": 6596,
      "Ġgenerous": 6597,
      "posing": 6598,
      "Ġ12": 6599,
      "Ġwheels": 6600,
      "Ġsleepy": 6601,
      "Ġfootman": 6602,
      "Ġkissing": 6603,
      "Ġmurdered": 6604,
      "Ġforgetting": 6605,
      "Ġfairly": 6606,
      "Ġfields": 6607,
      "Ġreported": 6608,
      "Ġexamining": 6609,
      "Ġmodern": 6610,
      "Ġcompliment": 6611,
      "ĠAmalia": 6612,
      "Ġastonished": 6613,
      "castle": 6614,
      "Ġdescended": 6615,
      "Ġessential": 6616,
      "Ġobey": 6617,
      "followed": 6618,
      "Ġaccomplished": 6619,
      "Ġcorrect": 6620,
      "Ġrespons": 6621,
      "appearance": 6622,
      "Ġdiplom": 6623,
      "SvidrigaÃ¯lov": 6624,
      "aved": 6625,
      "fright": 6626,
      "gall": 6627,
      "iently": 6628,
      "mur": 6629,
      "mod": 6630,
      "move": 6631,
      "making": 6632,
      "mosp": 6633,
      "tri": 6634,
      "uced": 6635,
      "yal": 6636,
      "Ġsang": 6637,
      "Ġsnat": 6638,
      "rey": 6639,
      "reck": 6640,
      "erl": 6641,
      "Ġhit": 6642,
      "Ġhoo": 6643,
      "aries": 6644,
      "anwhile": 6645,
      "Ġsacred": 6646,
      "pelled": 6647,
      "Ġsuspect": 6648,
      "Ġlikes": 6649,
      "umes": 6650,
      "Ġamused": 6651,
      "agg": 6652,
      "ĠFred": 6653,
      "ĠFirst": 6654,
      "Ġspr": 6655,
      "russi": 6656,
      "Ġfog": 6657,
      "rowing": 6658,
      "Ġflash": 6659,
      "Ġresist": 6660,
      "Ġcomprehe": 6661,
      "Ġconsolation": 6662,
      "answered": 6663,
      "Ġinstrum": 6664,
      "Ġcares": 6665,
      "Ġkeeps": 6666,
      "Ġmeanwhile": 6667,
      "Ġreluct": 6668,
      "Ġrelieved": 6669,
      "Ġawoke": 6670,
      "ĠPeter": 6671,
      "Ġforever": 6672,
      "Ġdrops": 6673,
      "enny": 6674,
      "Ġtrap": 6675,
      "wonder": 6676,
      "Ġstudent": 6677,
      "Ġhastened": 6678,
      "Ġsym": 6679,
      "Ġmissed": 6680,
      "Ġcheerfully": 6681,
      "Ġcapture": 6682,
      "Ġannoy": 6683,
      "Ġeldest": 6684,
      "Ġfrowned": 6685,
      "Ġchoice": 6686,
      "Ġfeverish": 6687,
      "Ġrevealed": 6688,
      "Ġdisturb": 6689,
      "Ġemploy": 6690,
      "subject": 6691,
      "ĠTurtle": 6692,
      "Ã©evich": 6693,
      "Ġreminded": 6694,
      "Ġhyp": 6695,
      "Ġphysical": 6696,
      "Ġrequired": 6697,
      "Ġtossed": 6698,
      "Ġtormented": 6699,
      "Ġmusket": 6700,
      "important": 6701,
      "Ġpolicem": 6702,
      "comprehens": 6703,
      "\"'": 6704,
      "Se": 6705,
      "ax": 6706,
      "Ġ7": 6707,
      "Ġvers": 6708,
      "Ġivory": 6709,
      "hear": 6710,
      "repro": 6711,
      "Ġoak": 6712,
      "hair": 6713,
      "Ġmates": 6714,
      "Ġmamma": 6715,
      "Ġdashed": 6716,
      "Ġnations": 6717,
      "Ġbeheld": 6718,
      "Ġgri": 6719,
      "Ġglo": 6720,
      "Ġweeping": 6721,
      "ĠĠĠ": 6722,
      "ĠBer": 6723,
      "toine": 6724,
      "oles": 6725,
      "Ġneat": 6726,
      "else": 6727,
      "liked": 6728,
      "beaut": 6729,
      "ĠGrand": 6730,
      "Ġthanked": 6731,
      "Ġremorse": 6732,
      "icking": 6733,
      "Ġscattered": 6734,
      "Ġhoarse": 6735,
      "sole": 6736,
      "Ġobsc": 6737,
      "conne": 6738,
      "ĠStill": 6739,
      "ucked": 6740,
      "Ġlightning": 6741,
      "Ġcorps": 6742,
      "Ġminister": 6743,
      "positions": 6744,
      "Ġswell": 6745,
      "itching": 6746,
      "Ġcommanders": 6747,
      "Ġrepeating": 6748,
      "Ġrespectable": 6749,
      "Ġmilit": 6750,
      "Ġruined": 6751,
      "Ġstartled": 6752,
      "evening": 6753,
      "guard": 6754,
      "Ġsailor": 6755,
      "Ġsailors": 6756,
      "horse": 6757,
      "Ġviolently": 6758,
      "Ġdivision": 6759,
      "Ġmotionless": 6760,
      "factory": 6761,
      "Ġdomestic": 6762,
      "Ġbodies": 6763,
      "Ġelbow": 6764,
      "Ġcomrades": 6765,
      "struck": 6766,
      "Ġinstructions": 6767,
      "Chapter": 6768,
      "Mar": 6769,
      "best": 6770,
      "bell": 6771,
      "cross": 6772,
      "diff": 6773,
      "fold": 6774,
      "gor": 6775,
      "hors": 6776,
      "kins": 6777,
      "rant": 6778,
      "rict": 6779,
      "tur": 6780,
      "Ġske": 6781,
      "really": 6782,
      "Ġmudd": 6783,
      "Ġfain": 6784,
      "Ġdart": 6785,
      "Ġnigh": 6786,
      "impossible": 6787,
      "Ġrenew": 6788,
      "Ġrendered": 6789,
      "also": 6790,
      "Ġsailed": 6791,
      "ĠTe": 6792,
      "Ġmembers": 6793,
      "Ġsheet": 6794,
      "ĠHa": 6795,
      "allie": 6796,
      "olent": 6797,
      "Ġexert": 6798,
      "ĠDav": 6799,
      "ĠDuring": 6800,
      "Ġoverwhe": 6801,
      "bear": 6802,
      "ĠGryphon": 6803,
      "Ġprodu": 6804,
      "Ġbrows": 6805,
      "Ġdismay": 6806,
      "Ġgrasp": 6807,
      "Ġperceived": 6808,
      "Ġflu": 6809,
      "Ġobtain": 6810,
      "fav": 6811,
      "Ġhorrid": 6812,
      "except": 6813,
      "conven": 6814,
      "Ġends": 6815,
      "Ġrestrain": 6816,
      "amped": 6817,
      "Ġcorridor": 6818,
      "Ġwarning": 6819,
      "Ġpurse": 6820,
      "Ġamongst": 6821,
      "Ġintervals": 6822,
      "Ġcommanded": 6823,
      "Ġindifference": 6824,
      "Ġrepeat": 6825,
      "leton": 6826,
      "firm": 6827,
      "Ġmadam": 6828,
      "Ġfootsteps": 6829,
      "Ġarticle": 6830,
      "chess": 6831,
      "Ġsleigh": 6832,
      "Ġspiritual": 6833,
      "Ġtemp": 6834,
      "Ġreflection": 6835,
      "olyte": 6836,
      "Ġsolemnly": 6837,
      "Ġdisgust": 6838,
      "Ġintroduced": 6839,
      "Ġmotive": 6840,
      "Ġmillions": 6841,
      "Ġlunch": 6842,
      "Ġlarger": 6843,
      "ĠKaratÃ¡ev": 6844,
      "ienna": 6845,
      "Ġvalet": 6846,
      "Ġelegant": 6847,
      "ippolyte": 6848,
      "Ġlinen": 6849,
      "OOK": 6850,
      "Queequeg": 6851,
      "Ġecst": 6852,
      "erlitz": 6853,
      "AL": 6854,
      "Ahab": 6855,
      "Alexand": 6856,
      "Jon": 6857,
      "Razumihin": 6858,
      "Such": 6859,
      "cra": 6860,
      "fig": 6861,
      "fuel": 6862,
      "gings": 6863,
      "hour": 6864,
      "hundred": 6865,
      "lest": 6866,
      "lers": 6867,
      "tem": 6868,
      "waiting": 6869,
      "Ġtut": 6870,
      "Ġsly": 6871,
      "Ġwing": 6872,
      "ouis": 6873,
      "army": 6874,
      "ange": 6875,
      "Ġple": 6876,
      "Ġpred": 6877,
      "Ġpave": 6878,
      "Ġbending": 6879,
      "idents": 6880,
      "several": 6881,
      "Ġrevenge": 6882,
      "andy": 6883,
      "ilities": 6884,
      "ĠBilÃŃbin": 6885,
      "Ġdoom": 6886,
      "ols": 6887,
      "Ġexternal": 6888,
      "Ġvalley": 6889,
      "iel": 6890,
      "ĠDemi": 6891,
      "Ġleather": 6892,
      "eled": 6893,
      "elix": 6894,
      "Ġworry": 6895,
      "often": 6896,
      "Ġprev": 6897,
      "ovember": 6898,
      "death": 6899,
      "Ġours": 6900,
      "coll": 6901,
      "Ġperil": 6902,
      "Ġscound": 6903,
      "Ġtells": 6904,
      "Ġrare": 6905,
      "Ġcalls": 6906,
      "Ġapprehens": 6907,
      "Ġrestless": 6908,
      "Ġrestored": 6909,
      "Ġintim": 6910,
      "lication": 6911,
      "Ġdecision": 6912,
      "Ġ16": 6913,
      "Ġindul": 6914,
      "Ġinvest": 6915,
      "Ġskirt": 6916,
      "aneously": 6917,
      "therefore": 6918,
      "Ġdirections": 6919,
      "cribed": 6920,
      "Ġpositively": 6921,
      "Ġburden": 6922,
      "Ġcalcul": 6923,
      "consider": 6924,
      "Ġlowered": 6925,
      "Ġexception": 6926,
      "country": 6927,
      "Ġwarmly": 6928,
      "Ġhistorical": 6929,
      "Ġmountain": 6930,
      "Ġcompanions": 6931,
      "Ġpatriot": 6932,
      "Ġlodging": 6933,
      "Ġpenet": 6934,
      "Ġannounced": 6935,
      "Ġearnestly": 6936,
      "Ġassistant": 6937,
      "Ġpractical": 6938,
      "Ġventure": 6939,
      "ĠLizaveta": 6940,
      "Ġfavourite": 6941,
      "Ġinjured": 6942,
      "Ġborz": 6943,
      "Ġborne": 6944,
      "Ġcontinue": 6945,
      "Ġneighbourhood": 6946,
      "Ġintelligence": 6947,
      "Ġlearning": 6948,
      "Ġanswering": 6949,
      "Ġtype": 6950,
      "ĠSaturday": 6951,
      "Ġdoctors": 6952,
      "Indeed": 6953,
      ":âĢĶ": 6954,
      "Holmes": 6955,
      "Jane": 6956,
      "PÃ©tya": 6957,
      "bably": 6958,
      "drew": 6959,
      "flo": 6960,
      "fellow": 6961,
      "given": 6962,
      "maid": 6963,
      "mates": 6964,
      "past": 6965,
      "phan": 6966,
      "tre": 6967,
      "zes": 6968,
      "Ãª": 6969,
      "inf": 6970,
      "Ġsch": 6971,
      "Ġsne": 6972,
      "Ġwip": 6973,
      "Ġowing": 6974,
      "Ġbone": 6975,
      "Ġfought": 6976,
      "Ġcave": 6977,
      "orable": 6978,
      "Ġhook": 6979,
      "Ġheels": 6980,
      "Ġhence": 6981,
      "Ġling": 6982,
      "Ġlur": 6983,
      "Ġlantern": 6984,
      "ators": 6985,
      "omin": 6986,
      "uten": 6987,
      "sto": 6988,
      "entered": 6989,
      "verted": 6990,
      "Ġash": 6991,
      "iron": 6992,
      "alian": 6993,
      "rolled": 6994,
      "terrible": 6995,
      "ĠHouse": 6996,
      "ulting": 6997,
      "emies": 6998,
      "usk": 6999,
      "Ġexact": 7000,
      "Ġleis": 7001,
      "Ġuncommon": 7002,
      "urning": 7003,
      "Ġpockets": 7004,
      "Ġlikewise": 7005,
      "Ġhowling": 7006,
      "Ġbrisk": 7007,
      "Ġdisposition": 7008,
      "Ġolder": 7009,
      "osings": 7010,
      "Ġglittering": 7011,
      "shar": 7012,
      "Ġflower": 7013,
      "Ġobtained": 7014,
      "oubted": 7015,
      "Ġlightly": 7016,
      "Ġcaut": 7017,
      "ĠAnother": 7018,
      "Ġsincerely": 7019,
      "Ġsentiment": 7020,
      "Ġinsult": 7021,
      "Ġdeadly": 7022,
      "Ġincred": 7023,
      "Ġbrothers": 7024,
      "Ġobserving": 7025,
      "willing": 7026,
      "umbers": 7027,
      "Ġaccounts": 7028,
      "Ġsixty": 7029,
      "Ġfastened": 7030,
      "Ġexamine": 7031,
      "Ġjudgment": 7032,
      "Ġhunting": 7033,
      "mitri": 7034,
      "delight": 7035,
      "Ġhideous": 7036,
      "satisfaction": 7037,
      "Ġimpatience": 7038,
      "Ġdisgrace": 7039,
      "Ġvexation": 7040,
      "Ġignorant": 7041,
      "Ġcottage": 7042,
      "Russian": 7043,
      "soldiers": 7044,
      "Ġbirth": 7045,
      "ĠMichael": 7046,
      "Ġsummoned": 7047,
      "?...âĢĿ": 7048,
      "Anat": 7049,
      "Lu": 7050,
      "Would": 7051,
      "ections": 7052,
      "lance": 7053,
      "pill": 7054,
      "sound": 7055,
      "sum": 7056,
      "six": 7057,
      "Ġ$": 7058,
      "inity": 7059,
      "reci": 7060,
      "ouched": 7061,
      "Ġbol": 7062,
      "itate": 7063,
      "enfield": 7064,
      "Ġcas": 7065,
      "Ġcop": 7066,
      "Ġheed": 7067,
      "Ġlux": 7068,
      "athed": 7069,
      "Ġnation": 7070,
      "Ġgig": 7071,
      "Ġeternal": 7072,
      "etch": 7073,
      "Ġmechan": 7074,
      "ĠMeryton": 7075,
      "Ġbutton": 7076,
      "Ġdeed": 7077,
      "ĠPotter": 7078,
      "ĠBoth": 7079,
      "Ġrushing": 7080,
      "antity": 7081,
      "Ġorgan": 7082,
      "Ġalter": 7083,
      "akened": 7084,
      "Ġabrupt": 7085,
      "Ġagon": 7086,
      "Ġgover": 7087,
      "Ġjew": 7088,
      "Ġanyway": 7089,
      "reath": 7090,
      "opened": 7091,
      "Ġusing": 7092,
      "ovel": 7093,
      "ĠEv": 7094,
      "mee": 7095,
      "Ġproblem": 7096,
      "uchÃ¡rov": 7097,
      "Ġbrid": 7098,
      "ledged": 7099,
      "Ġplun": 7100,
      "Ġconsisted": 7101,
      "ĠVII": 7102,
      "factor": 7103,
      "Ġdoorway": 7104,
      "compl": 7105,
      "jected": 7106,
      "iculous": 7107,
      "Ġpresents": 7108,
      "Ġsteel": 7109,
      "Ġwoe": 7110,
      "Ġskull": 7111,
      "Ġnorth": 7112,
      "Ġadmired": 7113,
      "ugged": 7114,
      "Ġseconds": 7115,
      "character": 7116,
      "Ġchairs": 7117,
      "Ġprayed": 7118,
      "desp": 7119,
      "compan": 7120,
      "Ġvaluable": 7121,
      "Ġportrait": 7122,
      "Ġbeaten": 7123,
      "Ġringing": 7124,
      "Ġprevented": 7125,
      "Ġsufferings": 7126,
      "Ġsucceed": 7127,
      "Ġunconsciously": 7128,
      "ĠĠĠĠĠĠĠĠĠĠĠĠĠĠĠĠĠĠĠĠĠĠĠĠĠĠĠĠĠĠĠĠĠĠĠĠĠĠĠĠ": 7129,
      "Ġfrequent": 7130,
      "Ġwandered": 7131,
      "Ġrecollection": 7132,
      "Ġdistinguished": 7133,
      "straight": 7134,
      "Ġargument": 7135,
      "girl": 7136,
      "Ġautumn": 7137,
      "mosphere": 7138,
      "horses": 7139,
      "uchÃ¡rovo": 7140,
      "Benn": 7141,
      "Captain": 7142,
      "ET": 7143,
      "Give": 7144,
      "dor": 7145,
      "kers": 7146,
      "oc": 7147,
      "oom": 7148,
      "rade": 7149,
      "watch": 7150,
      "wanted": 7151,
      "Ã¶": 7152,
      "Ġz": 7153,
      "Ġtide": 7154,
      "Ġwaking": 7155,
      "Ġwolves": 7156,
      "Ġbust": 7157,
      "Ġfired": 7158,
      "Ġfountain": 7159,
      "enra": 7160,
      "ann": 7161,
      "Ġinsp": 7162,
      "Ġpall": 7163,
      "Ġhabits": 7164,
      "ĠIX": 7165,
      "utions": 7166,
      "Ġgrin": 7167,
      "Ġgaily": 7168,
      "Ġthread": 7169,
      "Ġstars": 7170,
      "ĠTashtego": 7171,
      "ĠPrussi": 7172,
      "Ġconven": 7173,
      "unch": 7174,
      "Ġaltered": 7175,
      "Ġalike": 7176,
      "Ġouter": 7177,
      "umption": 7178,
      "ĠLike": 7179,
      "agn": 7180,
      "abbit": 7181,
      "ĠGreat": 7182,
      "Ġboot": 7183,
      "aps": 7184,
      "short": 7185,
      "ÃŃl": 7186,
      "Ġpermission": 7187,
      "Ġplump": 7188,
      "Ġsche": 7189,
      "ĠVIII": 7190,
      "Ġnewly": 7191,
      "comm": 7192,
      "intell": 7193,
      "super": 7194,
      "Ġarmies": 7195,
      "Ġarmchair": 7196,
      "onde": 7197,
      "Ġ10": 7198,
      "Ġ11": 7199,
      "ĠXII": 7200,
      "Ġincident": 7201,
      "Ġrecent": 7202,
      ".âĢĻâĢĿ": 7203,
      "uffled": 7204,
      "Ġeasier": 7205,
      "mediately": 7206,
      "Ġgaze": 7207,
      "Ġprayers": 7208,
      "Ġimmediate": 7209,
      "ĠWhit": 7210,
      "Ġsingular": 7211,
      "Ġcollected": 7212,
      "John": 7213,
      "Ġtenderness": 7214,
      "Ġreports": 7215,
      "begin": 7216,
      "ĠXXI": 7217,
      "ĠXXV": 7218,
      "Ġhills": 7219,
      "Ġfatig": 7220,
      "Ġmasses": 7221,
      "occasion": 7222,
      "Ġlodgings": 7223,
      "passed": 7224,
      "Ġhunger": 7225,
      "Ġkeys": 7226,
      "Ġliter": 7227,
      "Ġpaced": 7228,
      "Ġfaithful": 7229,
      "Ġsmoking": 7230,
      "ĠDeath": 7231,
      "Ġimpatient": 7232,
      "Ġbecomes": 7233,
      "Petersburg": 7234,
      "Ġthoroughly": 7235,
      "Ġpronounced": 7236,
      "Ġassembled": 7237,
      "sacrif": 7238,
      "Ġpoliceman": 7239,
      "comprehensible": 7240,
      "Dead": 7241,
      "Our": 7242,
      "Pro": 7243,
      "Pray": 7244,
      "Somet": 7245,
      "mal": 7246,
      "money": 7247,
      "opt": 7248,
      "onder": 7249,
      "squ": 7250,
      "Ġscold": 7251,
      "real": 7252,
      "repe": 7253,
      "Ġbay": 7254,
      "Ġblock": 7255,
      "Ġbloom": 7256,
      "Ġcitizen": 7257,
      "Ġdrum": 7258,
      "anx": 7259,
      "Ġpushing": 7260,
      "omy": 7261,
      "stained": 7262,
      "sels": 7263,
      "second": 7264,
      "Ġwasted": 7265,
      "eting": 7266,
      "Ġantic": 7267,
      "ores": 7268,
      "rap": 7269,
      "ĠSimon": 7270,
      "ĠBour": 7271,
      "geon": 7272,
      "ulations": 7273,
      "Ġrout": 7274,
      "umps": 7275,
      "ĠCl": 7276,
      "Ġquit": 7277,
      "dead": 7278,
      "Ġproduce": 7279,
      "need": 7280,
      "Ġseeming": 7281,
      "Ġnevertheless": 7282,
      "whose": 7283,
      "Ġparting": 7284,
      "noticed": 7285,
      "Ġdesk": 7286,
      "Ġcontempl": 7287,
      "Ġchamber": 7288,
      "Ġconsult": 7289,
      "ĠVienna": 7290,
      "Ġimpulse": 7291,
      "Ġaccused": 7292,
      "Ġmarve": 7293,
      "ertainly": 7294,
      "Ġaddition": 7295,
      "Ġdistinct": 7296,
      "Ġchildish": 7297,
      "ailing": 7298,
      "hole": 7299,
      "Ġswung": 7300,
      "evil": 7301,
      "grand": 7302,
      "Ġcrushed": 7303,
      "Ġorderly": 7304,
      "ĠThou": 7305,
      "Ġrecall": 7306,
      "Ġpowerful": 7307,
      "Ġprompt": 7308,
      "Ġburnt": 7309,
      "Ġtrack": 7310,
      "Ġ189": 7311,
      "Ġsharks": 7312,
      "happened": 7313,
      "longed": 7314,
      "Ġsolitude": 7315,
      "Ġcentre": 7316,
      "Ġconstant": 7317,
      "Ġmarks": 7318,
      "Ġconcealed": 7319,
      "Ġwhispering": 7320,
      "Ġlabor": 7321,
      "Ġmedic": 7322,
      "Ġattendant": 7323,
      "Ġrecognize": 7324,
      "Ġmessage": 7325,
      "Ġexecution": 7326,
      "Ġexecuted": 7327,
      "Ġtrifle": 7328,
      "officers": 7329,
      "Quite": 7330,
      "Ġfishery": 7331,
      "Ġrules": 7332,
      "Ġsaddle": 7333,
      "Ġterribly": 7334,
      "Ġperplexity": 7335,
      "rÃ©monde": 7336,
      "Ġbundle": 7337,
      "Ġhitherto": 7338,
      "Anatole": 7339,
      "!--": 7340,
      "Aunt": 7341,
      "BOOK": 7342,
      "aper": 7343,
      "bal": 7344,
      "bound": 7345,
      "cence": 7346,
      "doubt": 7347,
      "each": 7348,
      "fish": 7349,
      "gra": 7350,
      "iated": 7351,
      "luck": 7352,
      "mock": 7353,
      "rusted": 7354,
      "sight": 7355,
      "school": 7356,
      "tled": 7357,
      "towards": 7358,
      "yn": 7359,
      "Ġ8": 7360,
      "Ġtack": 7361,
      "Ġtiny": 7362,
      "nds": 7363,
      "erity": 7364,
      "Ġblo": 7365,
      "itudes": 7366,
      "Ġmock": 7367,
      "Ġmental": 7368,
      "Ġfence": 7369,
      "Ġfren": 7370,
      "Ġcli": 7371,
      "Ġdwell": 7372,
      "Ġlake": 7373,
      "atively": 7374,
      "ĠnaÃ¯": 7375,
      "Ġhay": 7376,
      "leave": 7377,
      "sea": 7378,
      "Ġstret": 7379,
      "ĠThank": 7380,
      "Ġsell": 7381,
      "Ġsevere": 7382,
      "illing": 7383,
      "peculiar": 7384,
      "Ġsus": 7385,
      "raction": 7386,
      "Ġdeceived": 7387,
      "Ġconqu": 7388,
      "olgor": 7389,
      "Ġexcess": 7390,
      "arts": 7391,
      "umerable": 7392,
      "Ġlee": 7393,
      "ĠRosings": 7394,
      "Ġqualities": 7395,
      "ĠJune": 7396,
      "Ġprec": 7397,
      "deck": 7398,
      "ĠGive": 7399,
      "Ġenchan": 7400,
      "Ġenemies": 7401,
      "Ġdaylight": 7402,
      "Ġbride": 7403,
      "Ġpeop": 7404,
      "Ġflashed": 7405,
      "Ġflames": 7406,
      "Ġtramp": 7407,
      "Ġwanting": 7408,
      "Ġattracted": 7409,
      "ints": 7410,
      "resol": 7411,
      "Ãºkov": 7412,
      "Ġresting": 7413,
      "Ġloaded": 7414,
      "Ġstrict": 7415,
      "roval": 7416,
      "rovitch": 7417,
      "Ġadvancing": 7418,
      "plan": 7419,
      "Ġhated": 7420,
      "Ġshortly": 7421,
      "Ġcircles": 7422,
      "worthy": 7423,
      "Ġsatisfy": 7424,
      "Ġdreaded": 7425,
      "Ġsenses": 7426,
      "Ġesteem": 7427,
      "Ġsecrets": 7428,
      "Ġdelivered": 7429,
      "Ġmember": 7430,
      "Ġwarmth": 7431,
      "Ġgrandfather": 7432,
      "viathan": 7433,
      "Ġattacked": 7434,
      "Ġconstantly": 7435,
      "feelings": 7436,
      "Ġmaids": 7437,
      "Ġcandles": 7438,
      "Ġuneasiness": 7439,
      "ĠChristian": 7440,
      "ĠXVI": 7441,
      "stein": 7442,
      "Ġventured": 7443,
      "Ġguessed": 7444,
      "Ġidle": 7445,
      "Ġimprove": 7446,
      "Ġimproved": 7447,
      "Ġpersuade": 7448,
      "Ãºshka": 7449,
      "ĠXIV": 7450,
      "close": 7451,
      "Ġamazement": 7452,
      "Ġdisappointed": 7453,
      "broken": 7454,
      "Ġfierce": 7455,
      "Ġliberty": 7456,
      "Madame": 7457,
      "ĠBarclay": 7458,
      "Ġmurmured": 7459,
      "Ġuniversal": 7460,
      "ĠRepublic": 7461,
      "Ġpavement": 7462,
      "ĠnaÃ¯ve": 7463,
      "olgorÃºkov": 7464,
      "Com": 7465,
      "Defarge": 7466,
      "Eng": 7467,
      "Poor": 7468,
      "Yet": 7469,
      "bable": 7470,
      "cut": 7471,
      "crowd": 7472,
      "eau": 7473,
      "hill": 7474,
      "husband": 7475,
      "iarly": 7476,
      "large": 7477,
      "mate": 7478,
      "mine": 7479,
      "oked": 7480,
      "sa": 7481,
      "sitting": 7482,
      "trying": 7483,
      "uine": 7484,
      "vill": 7485,
      "Â£": 7486,
      "Ãł": 7487,
      "Ġing": 7488,
      "Ġtit": 7489,
      "Ġtid": 7490,
      "Ġsinking": 7491,
      "Ġmajest": 7492,
      "oner": 7493,
      "ordered": 7494,
      "Ġdil": 7495,
      "Ġdumb": 7496,
      "Ġpoured": 7497,
      "Ġnaked": 7498,
      "Ġwaste": 7499,
      "adov": 7500,
      "rified": 7501,
      "Ġsails": 7502,
      "ĠTem": 7503,
      "Ġseizing": 7504,
      "ĠSqu": 7505,
      "ĠSallie": 7506,
      "Ġdeaf": 7507,
      "ĠPemberley": 7508,
      "ĠBo": 7509,
      "toe": 7510,
      "----": 7511,
      "ĠRe": 7512,
      "ĠRabbit": 7513,
      "Ġroar": 7514,
      "ĠClerval": 7515,
      "ĠFran": 7516,
      "fear": 7517,
      "ĠEh": 7518,
      "ĠGab": 7519,
      "ĠGreen": 7520,
      "Ġsmiles": 7521,
      "arsad": 7522,
      "Ġspell": 7523,
      "Ġhappily": 7524,
      "Ġtrades": 7525,
      "Ġcompared": 7526,
      "within": 7527,
      "Ġentry": 7528,
      "Ġpleasing": 7529,
      "ĠFrenchmen": 7530,
      "avo": 7531,
      "success": 7532,
      "ĠAntoine": 7533,
      "Ġ17": 7534,
      "Ġawaited": 7535,
      "Ġhatred": 7536,
      "Ġexpectation": 7537,
      "Ġrealized": 7538,
      "Ġremembering": 7539,
      "Ġdreadfully": 7540,
      "Ġhundreds": 7541,
      "Ġsensations": 7542,
      "Ġsenseless": 7543,
      "Ġmemories": 7544,
      "fordshire": 7545,
      "Ġpatron": 7546,
      "Which": 7547,
      "talking": 7548,
      "Ġcivility": 7549,
      "000": 7550,
      "Ġmessenger": 7551,
      "Ġjaws": 7552,
      "ĠAmerica": 7553,
      "Ġinevitable": 7554,
      "Ġvexed": 7555,
      "Ġshudder": 7556,
      "Ġswiftly": 7557,
      "Ġtranquil": 7558,
      "dinner": 7559,
      "ĠDuke": 7560,
      "Ġromantic": 7561,
      "particularly": 7562,
      "Ġsteadily": 7563,
      "Ġreplaced": 7564,
      "Ġmingled": 7565,
      "Ġsnatched": 7566,
      "ĠEvrÃ©monde": 7567,
      "Ġanticip": 7568,
      "Con": 7569,
      "IT": 7570,
      "Shall": 7571,
      "cer": 7572,
      "cuse": 7573,
      "ease": 7574,
      "gly": 7575,
      "houses": 7576,
      "ipping": 7577,
      "kch": 7578,
      "princess": 7579,
      "sens": 7580,
      "Ġident": 7581,
      "inions": 7582,
      "Ġwretch": 7583,
      "itself": 7584,
      "Ġfol": 7585,
      "Ġfix": 7586,
      "Ġfitted": 7587,
      "Ġlance": 7588,
      "Ġincess": 7589,
      "Ġniece": 7590,
      "Ġnerves": 7591,
      "omte": 7592,
      "oting": 7593,
      "Ġasser": 7594,
      "Ġattain": 7595,
      "ĠThy": 7596,
      "Ġissued": 7597,
      "Ġsending": 7598,
      "ĠMc": 7599,
      "ĠMen": 7600,
      "ĠMason": 7601,
      "ams": 7602,
      "ĠBet": 7603,
      "ĠBank": 7604,
      "ĠBaker": 7605,
      "Ġrows": 7606,
      "ĠNovember": 7607,
      "Ġworried": 7608,
      "Ġworks": 7609,
      "ĠCould": 7610,
      "ĠCour": 7611,
      "Ġamount": 7612,
      "Ġshawl": 7613,
      "herent": 7614,
      "Ã³y": 7615,
      "ĠGen": 7616,
      "Ġchose": 7617,
      "Ġdislike": 7618,
      "Ġcoarse": 7619,
      "shout": 7620,
      "Ġbliss": 7621,
      "Ġcontented": 7622,
      "Ġcontrol": 7623,
      "Ġexped": 7624,
      "orders": 7625,
      "Ġcomplex": 7626,
      "getting": 7627,
      "answer": 7628,
      "Ġdistressed": 7629,
      "Ġdrag": 7630,
      "Ġdecor": 7631,
      "ggy": 7632,
      "Ġfires": 7633,
      "ouncing": 7634,
      "angled": 7635,
      "understood": 7636,
      "Ġdrift": 7637,
      "voc": 7638,
      "ships": 7639,
      "Ġmilk": 7640,
      "year": 7641,
      "Ġsoftened": 7642,
      "Ġregimental": 7643,
      "Ġproperly": 7644,
      "Ġenjoyment": 7645,
      "Ġglasses": 7646,
      "regard": 7647,
      "regular": 7648,
      "Ġprobable": 7649,
      "Ġcampfire": 7650,
      "Ġtravel": 7651,
      "ĠAusterlitz": 7652,
      "Ġencoura": 7653,
      "Ġacquaintances": 7654,
      "acquaint": 7655,
      "Ġpassionate": 7656,
      "Ġstroke": 7657,
      "Ġwondrous": 7658,
      "officer": 7659,
      "Ġharpooneers": 7660,
      "portion": 7661,
      "Ġurged": 7662,
      "returned": 7663,
      "Ġmourn": 7664,
      "Ġfortunate": 7665,
      "Ġmanifest": 7666,
      "Ġbenefit": 7667,
      "Ġarrested": 7668,
      "Ġbonnet": 7669,
      "fashioned": 7670,
      "utenant": 7671,
      "Ġgoverness": 7672,
      "kchÃ©ev": 7673,
      "About": 7674,
      "Say": 7675,
      "THE": 7676,
      "_.âĢĿ": 7677,
      "bby": 7678,
      "free": 7679,
      "live": 7680,
      "nut": 7681,
      "prin": 7682,
      "sort": 7683,
      "town": 7684,
      "ugg": 7685,
      "Ġawhile": 7686,
      "inv": 7687,
      "iners": 7688,
      "intend": 7689,
      "Ġsan": 7690,
      "Ġwig": 7691,
      "reem": 7692,
      "erted": 7693,
      "Ġborrow": 7694,
      "Ġfret": 7695,
      "Ġcling": 7696,
      "Ġcult": 7697,
      "Ġhinted": 7698,
      "Ġhelm": 7699,
      "Ġpitch": 7700,
      "lee": 7701,
      "least": 7702,
      "legram": 7703,
      "Ġbeard": 7704,
      "Ġbeings": 7705,
      "Ġgoose": 7706,
      "sey": 7707,
      "Ġrender": 7708,
      "andal": 7709,
      "Ġserene": 7710,
      "Ġsolic": 7711,
      "ĠHippolyte": 7712,
      "ĠSol": 7713,
      "ĠSeveral": 7714,
      "Ġdemon": 7715,
      "emember": 7716,
      "ĠWhether": 7717,
      "aks": 7718,
      "ums": 7719,
      "ĠDra": 7720,
      "ĠDiary": 7721,
      "ĠDmitri": 7722,
      "ĠLittle": 7723,
      "ĠLouis": 7724,
      "--\"": 7725,
      "lips": 7726,
      "ĠJuly": 7727,
      "neigh": 7728,
      "next": 7729,
      "Ġsmoot": 7730,
      "Ġbegins": 7731,
      "Ġdisposed": 7732,
      "Ġspecies": 7733,
      "Ġscenes": 7734,
      "ĠKir": 7735,
      "Ġchain": 7736,
      "Ġtrous": 7737,
      "Ġragged": 7738,
      "Ġendless": 7739,
      "Ġwaving": 7740,
      "Ġwhaleman": 7741,
      "arned": 7742,
      "Ġchanging": 7743,
      "Ġhelpless": 7744,
      "ĠThatcher": 7745,
      "ĠXIII": 7746,
      "Ġhumble": 7747,
      "Ġassume": 7748,
      "Ġcaps": 7749,
      "Ġdepths": 7750,
      "Ġmistress": 7751,
      "eyed": 7752,
      "Ġobjects": 7753,
      "Ġelement": 7754,
      "speaking": 7755,
      "seeing": 7756,
      "complete": 7757,
      "Ġreflections": 7758,
      "Ġcenter": 7759,
      "Ġtravelling": 7760,
      "Ġinquiringly": 7761,
      "Ġcease": 7762,
      "Ġresults": 7763,
      "turning": 7764,
      "Ġconfessed": 7765,
      "Ġuneasily": 7766,
      "fortunes": 7767,
      "Ġbabies": 7768,
      "ĠPolish": 7769,
      "Ġpersuaded": 7770,
      "court": 7771,
      "Ġlandlord": 7772,
      "Ġtrifles": 7773,
      "Ġdeliver": 7774,
      "Ġtriumphant": 7775,
      "Ġsubstance": 7776,
      "ĠWestenra": 7777,
      "Ġlouder": 7778,
      "Ġsource": 7779,
      "Ġholid": 7780,
      "ĠHighness": 7781,
      "Ġnumerous": 7782,
      "Jonathan": 7783,
      "Ivanovna": 7784,
      "Was": 7785,
      "bid": 7786,
      "dream": 7787,
      "ga": 7788,
      "gaz": 7789,
      "iqu": 7790,
      "ns": 7791,
      "oe": 7792,
      "pain": 7793,
      "rÃºshka": 7794,
      "yl": 7795,
      "Ġach": 7796,
      "Ġaven": 7797,
      "ouching": 7798,
      "Ġfaster": 7799,
      "Ġflies": 7800,
      "enry": 7801,
      "Ġcoo": 7802,
      "Ġcough": 7803,
      "Ġcoward": 7804,
      "oring": 7805,
      "Ġdense": 7806,
      "Ġlaz": 7807,
      "Ġpounds": 7808,
      "lev": 7809,
      "Ġgates": 7810,
      "âĢĿ--": 7811,
      "ayed": 7812,
      "Ġrela": 7813,
      "Ġrepose": 7814,
      "urst": 7815,
      "urity": 7816,
      "Ġstake": 7817,
      "Ġsailing": 7818,
      "Ġseve": 7819,
      "Ġmender": 7820,
      "ĠAf": 7821,
      "pecks": 7822,
      "Ġdevelo": 7823,
      "ĠPfuel": 7824,
      "henomen": 7825,
      "Ġexh": 7826,
      "Ġextended": 7827,
      "Ġlibrary": 7828,
      "elk": 7829,
      "ĠLife": 7830,
      "Ġfac": 7831,
      "ĠRenfield": 7832,
      "Ġquitted": 7833,
      "ĠFelix": 7834,
      "ĠJour": 7835,
      "Ġprefer": 7836,
      "inks": 7837,
      "Ġprovided": 7838,
      "near": 7839,
      "Ġbran": 7840,
      "Ġlonging": 7841,
      "ĠOther": 7842,
      "Ġglow": 7843,
      "Ġperformed": 7844,
      "Ġhappier": 7845,
      "Ġresc": 7846,
      "Ġharness": 7847,
      "Ġcommence": 7848,
      "ubber": 7849,
      "Ġretire": 7850,
      "conce": 7851,
      "contr": 7852,
      "Ġwax": 7853,
      "ictions": 7854,
      "Ġsurve": 7855,
      "impse": 7856,
      "Ġappeal": 7857,
      "Ġsubs": 7858,
      "Ġguilt": 7859,
      "Ġcurrent": 7860,
      "Ġsunrise": 7861,
      "harpo": 7862,
      "ĠMarmee": 7863,
      "Ġsincere": 7864,
      "Ġassurance": 7865,
      "Ġinval": 7866,
      "Ġactual": 7867,
      "Ġsouth": 7868,
      "ĠOnce": 7869,
      "Ġirresist": 7870,
      "Ġmischief": 7871,
      "Ġinches": 7872,
      "lexÃ©evich": 7873,
      "Ġpersonally": 7874,
      "proper": 7875,
      "ormouse": 7876,
      "Ġmerc": 7877,
      "eye": 7878,
      "chance": 7879,
      "Ġanxiously": 7880,
      "Ġgrounds": 7881,
      "Ġveh": 7882,
      "Ġsubjects": 7883,
      "Ġdresses": 7884,
      "Ġdivided": 7885,
      "Ġescort": 7886,
      "Ġpeaceful": 7887,
      "afraid": 7888,
      "Ġcollar": 7889,
      "Ġlegal": 7890,
      "holding": 7891,
      "Ġdeserve": 7892,
      "Ġbenevol": 7893,
      "Ġinquiring": 7894,
      "minutes": 7895,
      "Ġcrept": 7896,
      "Ġdegrees": 7897,
      "Ġpacing": 7898,
      "Ġstirred": 7899,
      "Ġlimit": 7900,
      "Ġlimbs": 7901,
      "Ġassistance": 7902,
      "ĠTurk": 7903,
      "Ġendeavoured": 7904,
      "Ġdisappointment": 7905,
      "Ġpolitical": 7906,
      "paper": 7907,
      "Ġrisen": 7908,
      "Ġcontinual": 7909,
      "Ġtranquill": 7910,
      "Ġelbows": 7911,
      "ĠDuchess": 7912,
      "Ġcolumns": 7913,
      "Ġicon": 7914,
      "Ġtorture": 7915,
      "advant": 7916,
      "sweet": 7917,
      "Ġreferred": 7918,
      "Ġcondemned": 7919,
      "ĠMurat": 7920,
      "Ġoverwhel": 7921,
      "50": 7922,
      "bow": 7923,
      "iot": 7924,
      "lar": 7925,
      "mil": 7926,
      "ration": 7927,
      "sper": 7928,
      "tra": 7929,
      "times": 7930,
      "Ġ9": 7931,
      "ĠÂ£": 7932,
      "heav": 7933,
      "Ġoath": 7934,
      "Ġbasket": 7935,
      "isible": 7936,
      "Ġmult": 7937,
      "ench": 7938,
      "Ġcared": 7939,
      "Ġnap": 7940,
      "urous": 7941,
      "Ġstol": 7942,
      "Ġstove": 7943,
      "Ġstones": 7944,
      "herkÃ³v": 7945,
      "ĠToll": 7946,
      "keeping": 7947,
      "Ġseize": 7948,
      "ifully": 7949,
      "Ġsuspe": 7950,
      "ĠSpan": 7951,
      "ilight": 7952,
      "ĠBu": 7953,
      "lfare": 7954,
      "Ġshows": 7955,
      "Ġconject": 7956,
      "Ġvile": 7957,
      "ittered": 7958,
      "ĠDron": 7959,
      "ĠDormouse": 7960,
      "Ġwhence": 7961,
      "ĠRed": 7962,
      "Ġquantity": 7963,
      "lored": 7964,
      "living": 7965,
      "Ġbrick": 7966,
      "Ġgrou": 7967,
      "forming": 7968,
      "Ġowner": 7969,
      "Ġscared": 7970,
      "leased": 7971,
      "Ġflood": 7972,
      "Ġresumed": 7973,
      "Ġharsh": 7974,
      "Ġharder": 7975,
      "Ġobed": 7976,
      "Ġobviously": 7977,
      "Ġclue": 7978,
      "Ġcommitted": 7979,
      "Ã©v": 7980,
      "const": 7981,
      "Ġendured": 7982,
      "avrÃºshka": 7983,
      "clothes": 7984,
      "ival": 7985,
      "Ġcareer": 7986,
      "Ġrefuge": 7987,
      "Ġfollows": 7988,
      "mperors": 7989,
      "Ġneedn": 7990,
      "Ġinsignific": 7991,
      "Ġjob": 7992,
      "doing": 7993,
      "Ġtremend": 7994,
      "Ġillustr": 7995,
      "running": 7996,
      "Ġmerchant": 7997,
      "Ġmadness": 7998,
      "Ġpainfully": 7999,
      "Ġextent": 8000,
      "Ġjoyfully": 8001,
      "Ġinquire": 8002,
      "Ġfloating": 8003,
      "Soon": 8004,
      "Ġestates": 8005,
      "Ġwildly": 8006,
      "Ġquarrel": 8007,
      "Ġenjoying": 8008,
      "Ġparlor": 8009,
      "Thus": 8010,
      "Ġaccompany": 8011,
      "Anna": 8012,
      "Ġdesert": 8013,
      "Ġblessing": 8014,
      "Ġgenuine": 8015,
      "Ġdelicacy": 8016,
      "Ġridiculous": 8017,
      "Ġattentions": 8018,
      "Ġamazed": 8019,
      "ĠNorth": 8020,
      "Ġslave": 8021,
      "Ġhunts": 8022,
      "Ġdistinguish": 8023,
      "Ġcomrade": 8024,
      "Ġarguments": 8025,
      "Ġadventure": 8026,
      "opyright": 8027,
      "Ġdelirium": 8028,
      "suspic": 8029,
      "Ġprecisely": 8030,
      "Ġetc": 8031,
      "Ġcorrespond": 8032,
      "Carthy": 8033,
      "Ġfruit": 8034,
      "Ġchimney": 8035,
      "Ġpeoples": 8036,
      "elkilt": 8037,
      "ĠJournal": 8038,
      "Bingley": 8039,
      "Certainly": 8040,
      "General": 8041,
      "Hurrah": 8042,
      "Katerina": 8043,
      "bright": 8044,
      "bread": 8045,
      "fro": 8046,
      "iac": 8047,
      "iably": 8048,
      "ique": 8049,
      "lost": 8050,
      "mid": 8051,
      "moved": 8052,
      "nes": 8053,
      "pet": 8054,
      "roud": 8055,
      "wish": 8056,
      "women": 8057,
      "incl": 8058,
      "render": 8059,
      "Ġbowing": 8060,
      "Ġmach": 8061,
      "Ġmixed": 8062,
      "Ġfoul": 8063,
      "Ġfasc": 8064,
      "engers": 8065,
      "Ġtools": 8066,
      "Ġdre": 8067,
      "Ġdined": 8068,
      "Ġloo": 8069,
      "omon": 8070,
      "leted": 8071,
      "utch": 8072,
      "icule": 8073,
      "Ġwash": 8074,
      "Ġugly": 8075,
      "Ġnotion": 8076,
      "kept": 8077,
      "Ġsobbing": 8078,
      "tov": 8079,
      "geant": 8080,
      "Ġshoot": 8081,
      "Ġratt": 8082,
      "ieu": 8083,
      "iev": 8084,
      "Ġleviathan": 8085,
      "elly": 8086,
      "atefully": 8087,
      "Ġroyal": 8088,
      "odka": 8089,
      "Ġaroused": 8090,
      "text": 8091,
      "acific": 8092,
      "ĠEach": 8093,
      "Ġdisd": 8094,
      "Ġdisorder": 8095,
      "apable": 8096,
      "Ġmustache": 8097,
      "force": 8098,
      "Ġglances": 8099,
      "Ġglimpse": 8100,
      "Ġplate": 8101,
      "Ġfoe": 8102,
      "Ġhearty": 8103,
      "Ġapplied": 8104,
      "Ġsupply": 8105,
      "Ġchecked": 8106,
      "Ġsubtle": 8107,
      "ĠAny": 8108,
      "Ġopenly": 8109,
      "Ġhopeless": 8110,
      "Ġwheel": 8111,
      "Ġadvise": 8112,
      "Ġhurrying": 8113,
      "brance": 8114,
      "rooms": 8115,
      "Ġsecre": 8116,
      "Ġrespected": 8117,
      "racters": 8118,
      "Ġbrightly": 8119,
      "everyone": 8120,
      "Ġsixteen": 8121,
      "ĠWithout": 8122,
      "Ġplanks": 8123,
      "interrupt": 8124,
      "afterwards": 8125,
      "Ġanimation": 8126,
      "Ġsolid": 8127,
      "minute": 8128,
      "thinking": 8129,
      "Ġavoided": 8130,
      "Ġencounter": 8131,
      "Ġviolence": 8132,
      "Ġsupposing": 8133,
      "Ġbitterly": 8134,
      "Ġcouncil": 8135,
      "ĠJustine": 8136,
      "Ġinclined": 8137,
      "married": 8138,
      "Ġboldly": 8139,
      "Ġshuddered": 8140,
      "Ġcarpenter": 8141,
      "Ġindicated": 8142,
      "Ġamusement": 8143,
      "yesterday": 8144,
      "yrother": 8145,
      "ĠDaniel": 8146,
      "Ġexchanged": 8147,
      "Ġrecognised": 8148,
      "ĠBoguchÃ¡rovo": 8149,
      "Ġpuzzled": 8150,
      "pretty": 8151,
      "possibility": 8152,
      "Ġbewildered": 8153,
      "Ġashore": 8154,
      "Ġmajestic": 8155,
      "ĠCourt": 8156,
      "Ġbranches": 8157,
      "Copyright": 8158,
      "Monseigneur": 8159,
      "bac": 8160,
      "bors": 8161,
      "battle": 8162,
      "dam": 8163,
      "dread": 8164,
      "mad": 8165,
      "mouth": 8166,
      "sn": 8167,
      "tree": 8168,
      "uv": 8169,
      "ws": 8170,
      "warks": 8171,
      "Ġ&": 8172,
      "Ġtables": 8173,
      "Ġaide": 8174,
      "inister": 8175,
      "edy": 8176,
      "Ġmix": 8177,
      "Ġfil": 8178,
      "Ġfolk": 8179,
      "Ġdine": 8180,
      "Ġdaz": 8181,
      "Ġpip": 8182,
      "Ġpup": 8183,
      "Ġhare": 8184,
      "lebr": 8185,
      "uttered": 8186,
      "ioned": 8187,
      "alÃº": 8188,
      "Ġstif": 8189,
      "Ġsob": 8190,
      "ĠMoff": 8191,
      "ĠHold": 8192,
      "Ġsung": 8193,
      "alles": 8194,
      "ĠSA": 8195,
      "thou": 8196,
      "estrade": 8197,
      "ounding": 8198,
      "ourse": 8199,
      "ĠDolgorÃºkov": 8200,
      "ĠRuc": 8201,
      "perfect": 8202,
      "Ġtheirs": 8203,
      "agers": 8204,
      "became": 8205,
      "rences": 8206,
      "Ġpropri": 8207,
      "ĠItalian": 8208,
      "oseph": 8209,
      "ĠOut": 8210,
      "Ġstillness": 8211,
      "Ġdesir": 8212,
      "Ġflow": 8213,
      "Ġresent": 8214,
      "ĠVery": 8215,
      "Ġcloth": 8216,
      "Ġclung": 8217,
      "Ġwrath": 8218,
      "Ġmarched": 8219,
      "Ġwinds": 8220,
      "Ġchanges": 8221,
      "Ġfinds": 8222,
      "until": 8223,
      "untary": 8224,
      "Ġcorpse": 8225,
      "Ġintend": 8226,
      "Ġbrood": 8227,
      "grown": 8228,
      "Ġinterval": 8229,
      "Ġstole": 8230,
      "Ġinsist": 8231,
      "Ġtrem": 8232,
      "ĠThus": 8233,
      "Ġdevotion": 8234,
      "Ġearlier": 8235,
      "Ġdoubtless": 8236,
      "Ġgladly": 8237,
      "Ġcrowds": 8238,
      "Ġpainted": 8239,
      "otection": 8240,
      "Ġtraces": 8241,
      "pecial": 8242,
      "remained": 8243,
      "smith": 8244,
      "Ġeleven": 8245,
      "Ġoccupation": 8246,
      "Ġdecidedly": 8247,
      "Ġeagerness": 8248,
      "ĠGermans": 8249,
      "Ġcenturies": 8250,
      "expressed": 8251,
      "Ġdimly": 8252,
      "Ġsalt": 8253,
      "friends": 8254,
      "Ġdusty": 8255,
      "writing": 8256,
      "Ġfurnished": 8257,
      "ĠPolenka": 8258,
      "confidence": 8259,
      "ĠUncle": 8260,
      "Ġblew": 8261,
      "Ġrisk": 8262,
      "Ġdebts": 8263,
      "Ġignorance": 8264,
      "commander": 8265,
      "Ġswimming": 8266,
      "Ġprocession": 8267,
      "Ġestablish": 8268,
      "Ġwaistcoat": 8269,
      "Ġindependent": 8270,
      "Ġstooped": 8271,
      "Ġmarshal": 8272,
      "Ġseamen": 8273,
      "Ġdrowned": 8274,
      "Suddenly": 8275,
      "Ġcomparison": 8276,
      "Ġeloqu": 8277,
      "uzm": 8278,
      "intellig": 8279,
      "ĠBourgh": 8280,
      "Ġfrenzy": 8281,
      "ĠTemple": 8282,
      "Even": 8283,
      "Had": 8284,
      "Lady": 8285,
      "ND": 8286,
      "Porfiry": 8287,
      "Sir": 8288,
      "Whale": 8289,
      "[_": 8290,
      "aunt": 8291,
      "bod": 8292,
      "bles": 8293,
      "dge": 8294,
      "eight": 8295,
      "front": 8296,
      "fixed": 8297,
      "gage": 8298,
      "lifted": 8299,
      "sign": 8300,
      "vial": 8301,
      "Ġawe": 8302,
      "eries": 8303,
      "erget": 8304,
      "Ġdu": 8305,
      "Ġlid": 8306,
      "Ġlamps": 8307,
      "Ġpool": 8308,
      "leet": 8309,
      "imm": 8310,
      "immediately": 8311,
      "Ġren": 8312,
      "Ġrever": 8313,
      "ales": 8314,
      "Ġweigh": 8315,
      "Ġatmosphere": 8316,
      "Ġanch": 8317,
      "essalles": 8318,
      "Ġmeek": 8319,
      "ĠHenry": 8320,
      "peak": 8321,
      "ĠSaw": 8322,
      "ĠSouth": 8323,
      "Ġdeceive": 8324,
      "ĠPlease": 8325,
      "ustri": 8326,
      "inding": 8327,
      "indeed": 8328,
      "Ġvengeance": 8329,
      "ĠDer": 8330,
      "Ġages": 8331,
      "Ġgod": 8332,
      "laug": 8333,
      "Ġjet": 8334,
      "ĠRo": 8335,
      "Ġunited": 8336,
      "Ġunseen": 8337,
      "Ġquivering": 8338,
      "Ġpoison": 8339,
      "oped": 8340,
      "acon": 8341,
      "renched": 8342,
      "ĠEn": 8343,
      "mean": 8344,
      "dev": 8345,
      "Ġenerget": 8346,
      "Ġremote": 8347,
      "Ġmustn": 8348,
      "Ġthoughtful": 8349,
      "Ġperceive": 8350,
      "shad": 8351,
      "Ġadopt": 8352,
      "Ġbetrot": 8353,
      "Ġexplo": 8354,
      "ĠVict": 8355,
      "ĠVengeance": 8356,
      "Ġrail": 8357,
      "Ġclay": 8358,
      "exam": 8359,
      "expect": 8360,
      "concl": 8361,
      "Ġmarble": 8362,
      "Ġlovers": 8363,
      "Ġstring": 8364,
      "Ġbushes": 8365,
      "Ġcareless": 8366,
      "Ġstepping": 8367,
      "Ġmonarch": 8368,
      "condition": 8369,
      "Ġhonoured": 8370,
      "cription": 8371,
      "Ġsweep": 8372,
      "Ġreasoning": 8373,
      "Ġreasonable": 8374,
      "Ġrecover": 8375,
      "Ġpains": 8376,
      "Ġrespects": 8377,
      "Ġstudying": 8378,
      "changed": 8379,
      "Ġvillages": 8380,
      "prep": 8381,
      "ĠUnder": 8382,
      "Ġstreng": 8383,
      "thoughts": 8384,
      "Ġstrangers": 8385,
      "Ġtravell": 8386,
      "Ġlodge": 8387,
      "Ġcreation": 8388,
      "Ġbells": 8389,
      "Ġinclination": 8390,
      "Ġsuperst": 8391,
      "istocr": 8392,
      "Ġflag": 8393,
      "Ġwandering": 8394,
      "Ġneglect": 8395,
      "Ġarrangements": 8396,
      "Ġperpet": 8397,
      "Ġaudience": 8398,
      "Ġelderly": 8399,
      "Ġcommunication": 8400,
      "aisy": 8401,
      "Ġgarret": 8402,
      "Ġphilosophy": 8403,
      "Ġestablished": 8404,
      "Ġstatement": 8405,
      "Ġsqueezed": 8406,
      "Ġweapon": 8407,
      "Ġindignation": 8408,
      "Ġtiptoe": 8409,
      "Ġpeeped": 8410,
      "Ġgrieved": 8411,
      "Ġceremony": 8412,
      "Ġbattalion": 8413,
      "circumstances": 8414,
      "Ġplunged": 8415,
      "ĠWhitby": 8416,
      "Ġsuspected": 8417,
      "laughed": 8418,
      "!'": 8419,
      "Darcy": 8420,
      "Get": 8421,
      "Ha": 8422,
      "Listen": 8423,
      "Mamma": 8424,
      "Pres": 8425,
      "Upon": 8426,
      "Wait": 8427,
      "fif": 8428,
      "gover": 8429,
      "low": 8430,
      "lve": 8431,
      "lady": 8432,
      "tom": 8433,
      "try": 8434,
      "tried": 8435,
      "wounded": 8436,
      "ys": 8437,
      "Ġtum": 8438,
      "influ": 8439,
      "Ġshan": 8440,
      "received": 8441,
      "Ġfant": 8442,
      "onet": 8443,
      "Ġtoil": 8444,
      "Ġhull": 8445,
      "Ġdaring": 8446,
      "Ġincomprehensible": 8447,
      "Ġpanting": 8448,
      "Ġnamed": 8449,
      "otions": 8450,
      "Ġbears": 8451,
      "sters": 8452,
      "cend": 8453,
      "Ġsaber": 8454,
      "teroom": 8455,
      "iller": 8456,
      "ĠAg": 8457,
      "Ġsheep": 8458,
      "ĠBarsad": 8459,
      "Ġfeast": 8460,
      "usal": 8461,
      "Ġknoll": 8462,
      "Ġvest": 8463,
      "Ġabhor": 8464,
      "ortal": 8465,
      "pocket": 8466,
      "ĠCla": 8467,
      "Ġnowhere": 8468,
      "accept": 8469,
      "Ġimage": 8470,
      "ĠGet": 8471,
      "Ġpropose": 8472,
      "Ġbeforehand": 8473,
      "forgot": 8474,
      "Ġheadquarters": 8475,
      "Ġchap": 8476,
      "Ġflattered": 8477,
      "Ġtrunk": 8478,
      "Ġprim": 8479,
      "ĠYoung": 8480,
      "Ġclasped": 8481,
      "Ġtalent": 8482,
      "Ġimpressed": 8483,
      "Ġchildhood": 8484,
      "Ġsideways": 8485,
      "Ġrestore": 8486,
      "Ġsurm": 8487,
      "onday": 8488,
      "Ġcorners": 8489,
      "Ġconfined": 8490,
      "iality": 8491,
      "Ġguide": 8492,
      "Ġcurly": 8493,
      "Ġhumili": 8494,
      "Ġcommands": 8495,
      "Ġinspect": 8496,
      "Ġsoup": 8497,
      "Ġsecured": 8498,
      "ĠAllen": 8499,
      "lets": 8500,
      "worn": 8501,
      "ĠcalÃ¨": 8502,
      "culiarly": 8503,
      "william": 8504,
      "._]": 8505,
      "Ġfloated": 8506,
      "settled": 8507,
      "Ġdreaming": 8508,
      "Ġmoist": 8509,
      "Ġveins": 8510,
      "Ġvelve": 8511,
      "Doctor": 8512,
      "truth": 8513,
      "Ġballroom": 8514,
      "Ġcracked": 8515,
      "Ġcrazy": 8516,
      "blue": 8517,
      "ĠZherkÃ³v": 8518,
      "Ġtempor": 8519,
      "Ġoccasional": 8520,
      "ĠEveryone": 8521,
      "Ġexamination": 8522,
      "Still": 8523,
      "Ġdescription": 8524,
      "express": 8525,
      "ĠLadyship": 8526,
      "extra": 8527,
      "Ġstruggled": 8528,
      "itzwilliam": 8529,
      "achelor": 8530,
      "Ġimpatiently": 8531,
      "corner": 8532,
      "Ġsignificant": 8533,
      "Ġintrodu": 8534,
      "Ġdiscussion": 8535,
      "Ġdefend": 8536,
      "ulsive": 8537,
      "Ġlargest": 8538,
      "Ġrepresented": 8539,
      "ĠIlyÃŃn": 8540,
      "Ġbetrayed": 8541,
      "Ġresolutely": 8542,
      "Ġlearnt": 8543,
      "Ġintentions": 8544,
      "Ġrapture": 8545,
      "hurried": 8546,
      "Ġseventy": 8547,
      "surprise": 8548,
      "Ġrubbing": 8549,
      "Ġbreeze": 8550,
      "histor": 8551,
      "Ġintellectual": 8552,
      "Ġinevitability": 8553,
      "Ġribbon": 8554,
      "Ġconcentrated": 8555,
      "Ġcomprehend": 8556,
      "Ġsympt": 8557,
      "Ġinvestig": 8558,
      "Ġ1894": 8559,
      "ĠMcCarthy": 8560,
      "Fish": 8561,
      "Man": 8562,
      "Or": 8563,
      "ban": 8564,
      "captain": 8565,
      "dem": 8566,
      "hl": 8567,
      "jour": 8568,
      "kiss": 8569,
      "lÃ³v": 8570,
      "mic": 8571,
      "main": 8572,
      "ok": 8573,
      "oard": 8574,
      "tro": 8575,
      "ture": 8576,
      "var": 8577,
      "wy": 8578,
      "Ġtent": 8579,
      "inine": 8580,
      "Ġsons": 8581,
      "Ġwings": 8582,
      "itors": 8583,
      "Ġmail": 8584,
      "Ġcopy": 8585,
      "Ġhounds": 8586,
      "llable": 8587,
      "asper": 8588,
      "arming": 8589,
      "Ġink": 8590,
      "Ġpink": 8591,
      "Ġpian": 8592,
      "Ġpowder": 8593,
      "Ġnin": 8594,
      "Ġnumbers": 8595,
      "uttering": 8596,
      "Ġgif": 8597,
      "idly": 8598,
      "idable": 8599,
      "Ġyawn": 8600,
      "icious": 8601,
      "Ġep": 8602,
      "Ġreference": 8603,
      "irgin": 8604,
      "adays": 8605,
      "Ġange": 8606,
      "Ġmead": 8607,
      "ĠMil": 8608,
      "ĠMother": 8609,
      "ĠMark": 8610,
      "Ġbutter": 8611,
      "Ġsugar": 8612,
      "ĠPacific": 8613,
      "ĠBl": 8614,
      "Ġshrill": 8615,
      "Ġexcl": 8616,
      "aste": 8617,
      "Ġthereby": 8618,
      "ĠDun": 8619,
      "Ġroared": 8620,
      "Ġroses": 8621,
      "ĠCape": 8622,
      "ĠFrank": 8623,
      "ĠJudge": 8624,
      "Ġhandle": 8625,
      "Ġprey": 8626,
      "become": 8627,
      "ĠEmp": 8628,
      "mended": 8629,
      "Ġtwink": 8630,
      "ĠKate": 8631,
      "Ġcontained": 8632,
      "Ġchapter": 8633,
      "Ġtrot": 8634,
      "Ġobjection": 8635,
      "Ġopinions": 8636,
      "vidence": 8637,
      "Ġwrit": 8638,
      "Ġinstances": 8639,
      "Ġdistrict": 8640,
      "Ġwinding": 8641,
      "prot": 8642,
      "Ġkinds": 8643,
      "ials": 8644,
      "Ġoccasions": 8645,
      "Ġterrif": 8646,
      "spread": 8647,
      "Ġrelate": 8648,
      "Ġdecis": 8649,
      "Ġsmaller": 8650,
      "Ġadvised": 8651,
      "ĠForster": 8652,
      "Ġmisfortunes": 8653,
      "ĠSea": 8654,
      "Ġdevils": 8655,
      "Ġcondu": 8656,
      "Ġcoldly": 8657,
      "considered": 8658,
      "Ġarticles": 8659,
      "naturally": 8660,
      "strous": 8661,
      "Ġearthly": 8662,
      "knowledge": 8663,
      "regiment": 8664,
      "Ġanimals": 8665,
      "Ġsuccessful": 8666,
      "Ġconnections": 8667,
      "Ġconstit": 8668,
      "Ġceiling": 8669,
      "Ġdifficulties": 8670,
      "drawing": 8671,
      "Ġprivile": 8672,
      "Ġbenefactor": 8673,
      "talk": 8674,
      "reshold": 8675,
      "elessly": 8676,
      "Ġcatching": 8677,
      "ĠIndeed": 8678,
      "Ġdeclare": 8679,
      "Ġattentive": 8680,
      "Ġspectacle": 8681,
      "books": 8682,
      "Ġbaggage": 8683,
      "Ġdepends": 8684,
      "Ġmagnanim": 8685,
      "Petrovitch": 8686,
      "Ġhesitation": 8687,
      "ulsion": 8688,
      "Ġpoliteness": 8689,
      "Ġinnumerable": 8690,
      "Ġessence": 8691,
      "Ġlunatic": 8692,
      "Ġprincipal": 8693,
      "ĠScot": 8694,
      "spoke": 8695,
      "Ġwrinkled": 8696,
      "beside": 8697,
      "Ġemerged": 8698,
      "Ġshrugged": 8699,
      "Ġradiant": 8700,
      "Ġenvelope": 8701,
      "ĠArakchÃ©ev": 8702,
      "Ġexperiment": 8703,
      "Ġinstrument": 8704,
      "stopped": 8705,
      "oubtedly": 8706,
      "Ġgigantic": 8707,
      "Ġclient": 8708,
      "Ġtrousers": 8709,
      "bacco": 8710,
      "ĠRucastle": 8711,
      "BolkÃ³nski": 8712,
      "Besides": 8713,
      "More": 8714,
      "Mother": 8715,
      "bers": 8716,
      "bag": 8717,
      "ere": 8718,
      "eur": 8719,
      "fun": 8720,
      "finger": 8721,
      "gent": 8722,
      "iard": 8723,
      "nel": 8724,
      "phant": 8725,
      "rat": 8726,
      "rings": 8727,
      "uit": 8728,
      "win": 8729,
      "Ġze": 8730,
      "Ġtread": 8731,
      "inating": 8732,
      "Ġsen": 8733,
      "itals": 8734,
      "Ġcats": 8735,
      "ĠIllustr": 8736,
      "utable": 8737,
      "stren": 8738,
      "iders": 8739,
      "iciently": 8740,
      "Ġela": 8741,
      "Ġetern": 8742,
      "Ġthirst": 8743,
      "Ġretain": 8744,
      "Ġreview": 8745,
      "Ġreleased": 8746,
      "Ġforming": 8747,
      "Ġwelfare": 8748,
      "ands": 8749,
      "Ġmeat": 8750,
      "ĠMany": 8751,
      "ĠMonday": 8752,
      "Ġdepended": 8753,
      "Ġkings": 8754,
      "ĠPapa": 8755,
      "ĠBlack": 8756,
      "ulating": 8757,
      "Ġrattle": 8758,
      "Ġvodka": 8759,
      "ument": 8760,
      "Ġcomposure": 8761,
      "Ġjest": 8762,
      "ĠChe": 8763,
      "tears": 8764,
      "Ġponder": 8765,
      "Ġprecip": 8766,
      "Ġprejud": 8767,
      "ĠEmperors": 8768,
      "Ġprolonged": 8769,
      "Ġchill": 8770,
      "Ġseemingly": 8771,
      "Ġthoughtfully": 8772,
      "forth": 8773,
      "Ġblushing": 8774,
      "Ġthrong": 8775,
      "Ġglim": 8776,
      "Ġpercept": 8777,
      "psy": 8778,
      "Ġfolly": 8779,
      "Ġwherever": 8780,
      "Ġchains": 8781,
      "Ġchapel": 8782,
      "Ġpassages": 8783,
      "ording": 8784,
      "Ġtrad": 8785,
      "ensity": 8786,
      "ultaneously": 8787,
      "Ġdrago": 8788,
      "pring": 8789,
      "Ġhelping": 8790,
      "poses": 8791,
      "Ġswore": 8792,
      "Ġrefres": 8793,
      "anyone": 8794,
      "Ġguest": 8795,
      "Ġ13": 8796,
      "Ġpurple": 8797,
      "Ġsteam": 8798,
      "Ġinvisible": 8799,
      "cribe": 8800,
      "Ġincapable": 8801,
      "Ġsignal": 8802,
      "Ġoppress": 8803,
      "Ġmerit": 8804,
      "Ġparticulars": 8805,
      "Ġelev": 8806,
      "Ġcharacteristic": 8807,
      "countess": 8808,
      "placed": 8809,
      "compass": 8810,
      "Ġslippers": 8811,
      "Ġcentury": 8812,
      "certainly": 8813,
      "Ġtransferred": 8814,
      "Ġhealthy": 8815,
      "Ġsuspense": 8816,
      "Ġpetition": 8817,
      "Ġincreasing": 8818,
      "ĠXVIII": 8819,
      "ĠAmong": 8820,
      "understanding": 8821,
      "Ġvirtues": 8822,
      "Ġpractice": 8823,
      "concern": 8824,
      "rudence": 8825,
      "Ġhammock": 8826,
      "ĠPeople": 8827,
      "Everything": 8828,
      "Ġcrimson": 8829,
      "Ġdebt": 8830,
      "Ġvicomte": 8831,
      "Ġwhistle": 8832,
      "silent": 8833,
      "girls": 8834,
      "ĠMoreover": 8835,
      "listened": 8836,
      "Ġsoothing": 8837,
      "Ġenvy": 8838,
      "Ġpreparations": 8839,
      "hastly": 8840,
      "yÃ¡sha": 8841,
      "Ġpilgrim": 8842,
      "Ġecho": 8843,
      "ĠHarper": 8844,
      "Ġdeliberately": 8845,
      "Ġnarrative": 8846,
      "aggoo": 8847,
      "Ġskeleton": 8848,
      "Ġflukes": 8849,
      "Lucy": 8850,
      "Bennet": 8851,
      "sacrifice": 8852,
      "acquaintance": 8853,
      "ĠSolomon": 8854,
      "Ġsuspended": 8855,
      "Ġgroups": 8856,
      "Ġtremendous": 8857,
      "ĠVictor": 8858,
      "._]]": 8859,
      "AT": 8860,
      "Liz": 8861,
      "Pyotr": 8862,
      "Sherlock": 8863,
      "VasÃŃli": 8864,
      "lat": 8865,
      "lings": 8866,
      "mÃ³": 8867,
      "oz": 8868,
      "tfordshire": 8869,
      "vive": 8870,
      "vÃ¡r": 8871,
      "whales": 8872,
      "Ġtu": 8873,
      "Ġtact": 8874,
      "inous": 8875,
      "Ġwaked": 8876,
      "Ġbark": 8877,
      "Ġbuff": 8878,
      "Ġfools": 8879,
      "Ġtooth": 8880,
      "Ġcask": 8881,
      "ork": 8882,
      "lla": 8883,
      "Ġdried": 8884,
      "arms": 8885,
      "Ġphant": 8886,
      "Ġpapa": 8887,
      "Ġpathetic": 8888,
      "Ġphenomen": 8889,
      "Ġnaught": 8890,
      "omach": 8891,
      "Ġhaunted": 8892,
      "Ġbeer": 8893,
      "lyÃ¡n": 8894,
      "aying": 8895,
      "Ġredd": 8896,
      "Ġreign": 8897,
      "Ġreconc": 8898,
      "Ġwhiteness": 8899,
      "Ġheroes": 8900,
      "Ġattending": 8901,
      "ĠTurn": 8902,
      "ĠAlexÃ©evich": 8903,
      "ĠMars": 8904,
      "ĠHill": 8905,
      "Ġsuited": 8906,
      "Ġsullen": 8907,
      "ĠSince": 8908,
      "ĠShall": 8909,
      "ems": 8910,
      "emed": 8911,
      "olate": 8912,
      "Ġmane": 8913,
      "aston": 8914,
      "lac": 8915,
      "Ġunw": 8916,
      "teenth": 8917,
      "agon": 8918,
      "ĠFreem": 8919,
      "Ġspared": 8920,
      "Ġprodig": 8921,
      "Ġproportion": 8922,
      "Ġtwilight": 8923,
      "Ġboast": 8924,
      "rane": 8925,
      "Ġcoinc": 8926,
      "Ġcopecks": 8927,
      "osed": 8928,
      "former": 8929,
      "berry": 8930,
      "Ġscorn": 8931,
      "Ġscient": 8932,
      "Ġfoam": 8933,
      "Ġreputation": 8934,
      "Ġcharacters": 8935,
      "Ġpassions": 8936,
      "Ġprice": 8937,
      "comed": 8938,
      "Ġadding": 8939,
      "Ġsuppressed": 8940,
      "Ġstrained": 8941,
      "Ġcorn": 8942,
      "Ġworldly": 8943,
      "grateful": 8944,
      "Ġexpressing": 8945,
      "Ġvisits": 8946,
      "Ġsmallest": 8947,
      "Ġbestowed": 8948,
      "bridge": 8949,
      "Ġhonourable": 8950,
      "ĠSerene": 8951,
      "Ġrigging": 8952,
      "Ġcapacity": 8953,
      "Once": 8954,
      "Ġdischar": 8955,
      "probably": 8956,
      "Ġelsewhere": 8957,
      "burst": 8958,
      "runk": 8959,
      "worth": 8960,
      "Ġmadman": 8961,
      "Ġcolor": 8962,
      "Ġbattlefield": 8963,
      "Ġrespectful": 8964,
      "ĠHertfordshire": 8965,
      "remem": 8966,
      "trÃ¡d": 8967,
      "please": 8968,
      "Ġregarding": 8969,
      "Ġbarbar": 8970,
      "Ġslender": 8971,
      "glad": 8972,
      "Ġgravity": 8973,
      "Ġreplying": 8974,
      "Ġrapidity": 8975,
      "athem": 8976,
      "Without": 8977,
      "Ġpaying": 8978,
      "Any": 8979,
      "Ġdesires": 8980,
      "Ġeaten": 8981,
      "Ġeighteen": 8982,
      "Ġbelonging": 8983,
      "Ġencourage": 8984,
      "Ġgalloping": 8985,
      "Ġdetermination": 8986,
      "Ġfamilies": 8987,
      "Ġpunch": 8988,
      "Ġsuspicious": 8989,
      "Ġbehaved": 8990,
      "Ġrejoiced": 8991,
      "Ġendeavour": 8992,
      "Ġthreatened": 8993,
      "Ġdescend": 8994,
      "Ġrubbed": 8995,
      "walked": 8996,
      "Ġhesitating": 8997,
      "Ġlucky": 8998,
      "hardly": 8999,
      "Ġyielded": 9000,
      "ĠSomething": 9001,
      "society": 9002,
      "Ġcarpet": 9003,
      "Ġunusually": 9004,
      "determ": 9005,
      "Ġwrinkles": 9006,
      "Ġswaying": 9007,
      "Ġdishon": 9008,
      "Ġgathering": 9009,
      "Ġattractive": 9010,
      "Ġembarrassment": 9011,
      "ILOR": 9012,
      "Ġpreceding": 9013,
      "observed": 9014,
      "Ġverses": 9015,
      "Ġscoundrel": 9016,
      "sharp": 9017,
      "Ġtranquillity": 9018,
      "Ġsecrecy": 9019,
      "ĠMoffat": 9020,
      "ĠSAILOR": 9021,
      "ĠSawyer": 9022,
      "Ġstrengthen": 9023,
      "ĠcalÃ¨che": 9024,
      "mÃ³lov": 9025,
      "trÃ¡dnoe": 9026,
      "Eh": 9027,
      "First": 9028,
      "Later": 9029,
      "Like": 9030,
      "Mina": 9031,
      "bone": 9032,
      "born": 9033,
      "city": 9034,
      "cott": 9035,
      "danger": 9036,
      "eep": 9037,
      "finished": 9038,
      "gic": 9039,
      "len": 9040,
      "lass": 9041,
      "mov": 9042,
      "pent": 9043,
      "path": 9044,
      "slight": 9045,
      "soul": 9046,
      "tone": 9047,
      "ties": 9048,
      "Ã½": 9049,
      "Ġapt": 9050,
      "haling": 9051,
      "Ġmum": 9052,
      "Ġfits": 9053,
      "Ġfuss": 9054,
      "enched": 9055,
      "Ġtobacco": 9056,
      "arÃº": 9057,
      "anc": 9058,
      "Ġinsuff": 9059,
      "Ġpaint": 9060,
      "Ġhailed": 9061,
      "Ġbehave": 9062,
      "Ġbeef": 9063,
      "Ġgy": 9064,
      "started": 9065,
      "Ġwashing": 9066,
      "Ġreass": 9067,
      "Ġashes": 9068,
      "alf": 9069,
      "Ġanteroom": 9070,
      "Ġsaving": 9071,
      "ĠTr": 9072,
      "ĠTran": 9073,
      "Ġshell": 9074,
      "ĠHare": 9075,
      "ĠSay": 9076,
      "ĠSam": 9077,
      "iliar": 9078,
      "thro": 9079,
      "Ġdoc": 9080,
      "Ġshroud": 9081,
      "emÃ«": 9082,
      "antial": 9083,
      "Ġvital": 9084,
      "ĠDaggoo": 9085,
      "ĠNext": 9086,
      "Their": 9087,
      "lace": 9088,
      "ĠRy": 9089,
      "ĠRome": 9090,
      "Ġunnecessary": 9091,
      "ĠCross": 9092,
      "Ġquality": 9093,
      "odge": 9094,
      "ĠFive": 9095,
      "ĠJack": 9096,
      "ĠJoseph": 9097,
      "Ġpretending": 9098,
      "Ġshaken": 9099,
      "acet": 9100,
      "Ġsport": 9101,
      "ĠEast": 9102,
      "meaning": 9103,
      "Ġprosper": 9104,
      "Ġbegging": 9105,
      "Ġdisconc": 9106,
      "Ġdispositions": 9107,
      "Ġblubber": 9108,
      "ÃŃts": 9109,
      "Ġadvert": 9110,
      "Ġflowed": 9111,
      "Ġcompleted": 9112,
      "Ġtales": 9113,
      "ubs": 9114,
      "Ã©y": 9115,
      "Ġpreserve": 9116,
      "Ġpawn": 9117,
      "Ġserving": 9118,
      "Ġsergeant": 9119,
      "Ġapolog": 9120,
      "Ġdistracted": 9121,
      "attent": 9122,
      "Ġchances": 9123,
      "vention": 9124,
      "sery": 9125,
      "Ġcheck": 9126,
      "ĠWeyrother": 9127,
      "Ġconfl": 9128,
      "ĠAnn": 9129,
      "licted": 9130,
      "Ġterm": 9131,
      "Ġcertainty": 9132,
      "Ġswinging": 9133,
      "grad": 9134,
      "Ġspeaker": 9135,
      "Ġinvar": 9136,
      "Ġfinishing": 9137,
      "Ġquestioning": 9138,
      "effect": 9139,
      "Ġsimplicity": 9140,
      "Ġrealize": 9141,
      "Ġdeprived": 9142,
      "works": 9143,
      "Ġexplaining": 9144,
      "cula": 9145,
      "Ġcomforted": 9146,
      "Ġsatisfactory": 9147,
      "Ġengage": 9148,
      "Ġregiments": 9149,
      "places": 9150,
      "Ġfifth": 9151,
      "party": 9152,
      "Ġnicely": 9153,
      "replied": 9154,
      "Ġmarket": 9155,
      "Ġkilling": 9156,
      "Ġcelebr": 9157,
      "Ġwisdom": 9158,
      "Ġadjutants": 9159,
      "Ġannounce": 9160,
      "Ġpunct": 9161,
      "Ġgroaned": 9162,
      "Ġfashionable": 9163,
      "Ġprotest": 9164,
      "visions": 9165,
      "written": 9166,
      "incre": 9167,
      "Ġfrantic": 9168,
      "Ġbanks": 9169,
      "Ġunfold": 9170,
      "gentlemen": 9171,
      "Ġaudible": 9172,
      "continually": 9173,
      "Ġintelligent": 9174,
      "purpose": 9175,
      "Ġdismal": 9176,
      "Ġwhistling": 9177,
      "Ġinstinctively": 9178,
      "ĠPlat": 9179,
      "Ġadventures": 9180,
      "ING": 9181,
      "Ġbulk": 9182,
      "Ġfilling": 9183,
      "Ġanswers": 9184,
      "tino": 9185,
      "Ġloung": 9186,
      "Ġpreparation": 9187,
      "Ġdelirious": 9188,
      "Ġconfirmed": 9189,
      "simply": 9190,
      "Ġcongratulate": 9191,
      "Ġcritic": 9192,
      "Ġcommission": 9193,
      "Ġreligion": 9194,
      "Ġsleeves": 9195,
      "Ġshelter": 9196,
      "connected": 9197,
      "Ġborzois": 9198,
      "Ġabruptly": 9199,
      "ÃŃlna": 9200,
      "village": 9201,
      "ĠSquare": 9202,
      "ĠGreenland": 9203,
      "ĠGeneva": 9204,
[...]
