{
  "version": "1.0",
  "truncation": null,
  "padding": {
    "strategy": {
      "Fixed": 64
    },
    "direction": "Right",
    "pad_to_multiple_of": null,
    "pad_id": 1,
    "pad_type_id": 0,
    "pad_token": "[PAD]"
  },
  "added_tokens": [
    {
      "id": 0,
      "content": "[CLS]",
      "single_word": false,
      "lstrip": false,
      "rstrip": false,
      "normalized": false,
      "special": true
    },
    {
      "id": 1,
      "content": "[PAD]",
      "single_word": false,
      "lstrip": false,
      "rstrip": false,
      "normalized": false,
      "special": true
    },
    {
      "id": 2,
      "content": "[EOS]",
      "single_word": false,
      "lstrip": false,
      "rstrip": false,
      "normalized": false,
      "special": true
    }
  ],
  "normalizer": null,
  "pre_tokenizer": {
    "type": "ByteLevel",
    "add_prefix_space": true,
    "trim_offsets": true,
    "use_regex": true
  },
  "post_processor": null,
  "decoder": {
    "type": "ByteLevel",
    "add_prefix_space": true,
    "trim_offsets": true,
    "use_regex": true
  },
  "model": {
    "type": "BPE",
    "dropout": null,
    "unk_token": null,
    "continuing_subword_prefix": null,
    "end_of_word_suffix": null,
    "fuse_unk": false,
    "byte_fallback": false,
    "ignore_merges": false,
    "vocab": {
      "[CLS]": 0,
      "[PAD]": 1,
      "[EOS]": 2,
      "!": 3,
      "\"": 4,
      "$": 5,
      "&": 6,
      "'": 7,
      "(": 8,
      ")": 9,
      "*": 10,
      ",": 11,
      "-": 12,
      ".": 13,
      "/": 14,
      "0": 15,
      "1": 16,
      "2": 17,
      "3": 18,
      "4": 19,
      "5": 20,
      "6": 21,
      "7": 22,
      "8": 23,
      "9": 24,
      ":": 25,
      ";": 26,
      "=": 27,
      "?": 28,
      "A": 29,
      "B": 30,
      "C": 31,
      "D": 32,
      "E": 33,
      "F": 34,
      "G": 35,
      "H": 36,
      "I": 37,
      "J": 38,
      "K": 39,
      "L": 40,
      "M": 41,
      "N": 42,
      "O": 43,
      "P": 44,
      "Q": 45,
      "R": 46,
      "S": 47,
      "T": 48,
      "U": 49,
      "V": 50,
      "W": 51,
      "X": 52,
      "Y": 53,
      "Z": 54,
      "[": 55,
      "]": 56,
      "^": 57,
      "_": 58,
      "a": 59,
      "b": 60,
      "c": 61,
      "d": 62,
      "e": 63,
      "f": 64,
      "g": 65,
      "h": 66,
      "i": 67,
      "j": 68,
      "k": 69,
      "l": 70,
      "m": 71,
      "n": 72,
      "o": 73,
      "p": 74,
      "q": 75,
      "r": 76,
      "s": 77,
      "t": 78,
      "u": 79,
      "v": 80,
      "w": 81,
      "x": 82,
      "y": 83,
      "z": 84,
      "{": 85,
      "}": 86,
      "¡": 87,
      "¢": 88,
      "£": 89,
      "¤": 90,
      "¦": 91,
      "§": 92,
      "¨": 93,
      "©": 94,
      "ª": 95,
      "«": 96,
      "®": 97,
      "¯": 98,
      "°": 99,
      "³": 100,
      "´": 101,
      "¶": 102,
      "·": 103,
      "¹": 104,
      "º": 105,
      "¼": 106,
      "½": 107,
      "¿": 108,
      "Â": 109,
      "Ã": 110,
      "Å": 111,
      "Î": 112,
      "Ï": 113,
      "×": 114,
      "â": 115,
      "Ċ": 116,
      "Ġ": 117,
      "Ģ": 118,
      "ģ": 119,
      "Ĥ": 120,
      "Ħ": 121,
      "ī": 122,
      "Ĵ": 123,
      "ĵ": 124,
      "Ķ": 125,
      "ķ": 126,
      "Ĺ": 127,
      "ĺ": 128,
      "Ļ": 129,
      "ľ": 130,
      "Ŀ": 131,
      "ł": 132,
      "Ń": 133,
      "Ġt": 134,
      "he": 135,
      "Ġa": 136,
      "in": 137,
      "Ġs": 138,
      "Ġw": 139,
      "Ġthe": 140,
      "re": 141,
      "nd": 142,
      "Ġo": 143,
      "ha": 144,
      "âĢ": 145,
      "ou": 146,
      "er": 147,
      "ed": 148,
      "Ġb": 149,
      "it": 150,
      "is": 151,
      "ing": 152,
      "Ġm": 153,
      "Ġand": 154,
      "Ġf": 155,
      "en": 156,
      "on": 157,
      "Ġto": 158,
      "Ġc": 159,
      "Ġof": 160,
      "or": 161,
      "Ġh": 162,
      "ll": 163,
      "Ġd": 164,
      "Ġhe": 165,
      "es": 166,
      "as": 167,
      "ar": 168,
      "Ġl": 169,
      "an": 170,
      "Ġin": 171,
      "Ġp": 172,
      "at": 173,
      "Ġn": 174,
      "hat": 175,
      "om": 176,
      "Ġha": 177,
      "ĠI": 178,
      "le": 179,
      "ow": 180,
      "ot": 181,
      "Ġbe": 182,
      "ut": 183,
      "im": 184,
      "âĢľ": 185,
      "Ġg": 186,
      "ly": 187,
      "âĢĿ": 188,
      "st": 189,
      "id": 190,
      "Ġy": 191,
      "ic": 192,
      "se": 193,
      "Ġe": 194,
      "ve": 195,
      "Ġthat": 196,
      "ld": 197,
      "Ġwas": 198,
      "âĢĻ": 199,
      "Ġit": 200,
      "gh": 201,
      "Ġon": 202,
      "Ġth": 203,
      "ent": 204,
      "et": 205,
      "Ġyou": 206,
      "ce": 207,
      "ith": 208,
      "Ġhis": 209,
      "ay": 210,
      "ver": 211,
      "Ġre": 212,
      "Ġu": 213,
      "Ġwith": 214,
      "Ġas": 215,
      "ion": 216,
      "ir": 217,
      "ad": 218,
      "Ġwh": 219,
      "al": 220,
      "Ġfor": 221,
      "Ġher": 222,
      "ur": 223,
      "Ġnot": 224,
      "ro": 225,
      "ght": 226,
      "Ġst": 227,
      "her": 228,
      "Ġwe": 229,
      "ri": 230,
      "ch": 231,
      "Ġat": 232,
      "Ġhad": 233,
      "oo": 234,
      "Ġhim": 235,
      "Ġan": 236,
      "ould": 237,
      "Ġsa": 238,
      "ĠT": 239,
      "ter": 240,
      "Ġis": 241,
      "ke": 242,
      "and": 243,
      "Ġse": 244,
      "ct": 245,
      "Ġso": 246,
      "ill": 247,
      "ess": 248,
      "if": 249,
      "Ġme": 250,
      "ĠA": 251,
      "ain": 252,
      "ĠM": 253,
      "am": 254,
      "red": 255,
      "Ġshe": 256,
      "Ġbut": 257,
      "ĠH": 258,
      "Ġall": 259,
      "Ġmy": 260,
      "ome": 261,
      "ore": 262,
      "pe": 263,
      "Ġsu": 264,
      "ck": 265,
      "ra": 266,
      ".âĢĿ": 267,
      "all": 268,
      "ĠS": 269,
      "rom": 270,
      "il": 271,
      "th": 272,
      "Ġhave": 273,
      "ss": 274,
      "the": 275,
      "ich": 276,
      "ĠĠ": 277,
      "qu": 278,
      "Ġde": 279,
      "ĠâĢľ": 280,
      "Ġk": 281,
      "ĠP": 282,
      "ight": 283,
      "..": 284,
      "ĠB": 285,
      "hen": 286,
      "Ġsaid": 287,
      "to": 288,
      "Ġdo": 289,
      "Ġup": 290,
      "lf": 291,
      "ge": 292,
      "Ġsh": 293,
      "ble": 294,
      "pp": 295,
      "Ġby": 296,
      "ul": 297,
      "very": 298,
      "Ġr": 299,
      "ust": 300,
      "Ġfrom": 301,
      "em": 302,
      "out": 303,
      "Ġwere": 304,
      "ant": 305,
      "Ġcon": 306,
      "ol": 307,
      "Ġne": 308,
      "ook": 309,
      "ĠThe": 310,
      "ard": 311,
      "Ġfe": 312,
      "ous": 313,
      ",âĢĿ": 314,
      "un": 315,
      "est": 316,
      "one": 317,
      "Ġthis": 318,
      "Ġwhich": 319,
      "us": 320,
      "ind": 321,
      "ers": 322,
      "Ġwho": 323,
      "Ġone": 324,
      "Ġex": 325,
      "ov": 326,
      "Ġkn": 327,
      "Ġor": 328,
      "Ġv": 329,
      "ĠW": 330,
      "self": 331,
      "ong": 332,
      "ation": 333,
      "Ġli": 334,
      "art": 335,
      "Ġal": 336,
      "ood": 337,
      "ound": 338,
      "âĢĶ": 339,
      "Ġthey": 340,
      "Ġman": 341,
      "ast": 342,
      "our": 343,
      "Ġno": 344,
      "ie": 345,
      "?âĢĿ": 346,
      "ak": 347,
      "han": 348,
      "Ġthem": 349,
      "own": 350,
      "ost": 351,
      "ĠHe": 352,
      "ough": 353,
      "Ġout": 354,
      "ry": 355,
      "Ġthere": 356,
      "ist": 357,
      "Ġwhat": 358,
      "um": 359,
      "Ġare": 360,
      "itt": 361,
      "Ġwould": 362,
      "ĠD": 363,
      "!âĢĿ": 364,
      "Ġab": 365,
      "Ġbeen": 366,
      "Ġle": 367,
      "nt": 368,
      "ell": 369,
      "hed": 370,
      "ate": 371,
      "Ġcom": 372,
      "Ġwhen": 373,
      "Ġlook": 374,
      "el": 375,
      "ĠN": 376,
      "hing": 377,
      "ort": 378,
      "pt": 379,
      "Ġwor": 380,
      "ĠL": 381,
      "ven": 382,
      "ig": 383,
      "Ġfa": 384,
      "ure": 385,
      "ame": 386,
      "way": 387,
      "Ġyour": 388,
      "Ġif": 389,
      "--": 390,
      "The": 391,
      "Ġag": 392,
      "Ġgo": 393,
      "la": 394,
      "Ġj": 395,
      "po": 396,
      "Ġcould": 397,
      "ĠR": 398,
      "ive": 399,
      "per": 400,
      "Ġun": 401,
      "Ġro": 402,
      "ĠC": 403,
      "Ġdid": 404,
      "Ġqu": 405,
      "Ġwill": 406,
      "od": 407,
      "ide": 408,
      "lo": 409,
      "au": 410,
      "Ġam": 411,
      "other": 412,
      "Ġsome": 413,
      "Ġtheir": 414,
      "Ġtim": 415,
      "Ġar": 416,
      "ther": 417,
      "nder": 418,
      "ite": 419,
      "rin": 420,
      "Ġnow": 421,
      "Ġany": 422,
      "Ġaf": 423,
      "ity": 424,
      "ep": 425,
      "urn": 426,
      "Ġknow": 427,
      "reat": 428,
      "te": 429,
      "ice": 430,
      "able": 431,
      "Ġmore": 432,
      "ress": 433,
      "ake": 434,
      "ked": 435,
      "Ġpo": 436,
      "ĠĠĠĠ": 437,
      "ought": 438,
      "Ġcan": 439,
      "of": 440,
      "fore": 441,
      "li": 442,
      "Ġvery": 443,
      "ag": 444,
      "Ġinto": 445,
      "ĠF": 446,
      "op": 447,
      "Ġsee": 448,
      "fe": 449,
      "Ġlike": 450,
      "ĠJ": 451,
      "Ġtoo": 452,
      "Ġhand": 453,
      "ass": 454,
      "Ġthen": 455,
      "ittle": 456,
      "we": 457,
      "ab": 458,
      "Ġpre": 459,
      "are": 460,
      "Ã¡": 461,
      "ount": 462,
      "Ġtime": 463,
      "Ġonly": 464,
      "Ġabout": 465,
      "ally": 466,
      "Ġover": 467,
      "Ġsha": 468,
      "ĠAnd": 469,
      "ine": 470,
      "be": 471,
      "Ġagain": 472,
      "ious": 473,
      "ack": 474,
      "Ġus": 475,
      "dd": 476,
      "ance": 477,
      "Ġsay": 478,
      "here": 479,
      "ence": 480,
      "ac": 481,
      "Ġsp": 482,
      "ren": 483,
      "ove": 484,
      "Ġother": 485,
      "Ġim": 486,
      "Ã³": 487,
      "ier": 488,
      "ĠE": 489,
      "ru": 490,
      "me": 491,
      "de": 492,
      "Ġdown": 493,
      "You": 494,
      "Ġlittle": 495,
      "Ġhow": 496,
      "ish": 497,
      "ile": 498,
      "ving": 499,
      "ĠG": 500,
      "ink": 501,
      "wn": 502,
      "Ġpro": 503,
      "ĠMr": 504,
      "Ġoff": 505,
      "ather": 506,
      "ne": 507,
      "ved": 508,
      "ary": 509,
      "Ġthan": 510,
      "uch": 511,
      "Ġtw": 512,
      "ried": 513,
      "Ġsm": 514,
      "ĠBut": 515,
      "ire": 516,
      "ings": 517,
      "ies": 518,
      "cc": 519,
      "ness": 520,
      "ĠIt": 521,
      "ful": 522,
      "ull": 523,
      "Ġen": 524,
      "Ġhas": 525,
      "Ġevery": 526,
      "Ġbefore": 527,
      "ment": 528,
      "Ġbeg": 529,
      "ife": 530,
      "Ġch": 531,
      "Ġday": 532,
      "age": 533,
      "Ġseem": 534,
      "ade": 535,
      "Ġey": 536,
      "Ġbr": 537,
      "rew": 538,
      "Ġdis": 539,
      "Ġbo": 540,
      "Ġold": 541,
      "his": 542,
      "Ġshould": 543,
      "Ġrem": 544,
      "ap": 545,
      "right": 546,
      "ree": 547,
      "Ġlong": 548,
      "ran": 549,
      "ars": 550,
      "Ġmust": 551,
      "that": 552,
      "ose": 553,
      "Ġsuch": 554,
      "ĠO": 555,
      "Ġafter": 556,
      "Ġthought": 557,
      "ick": 558,
      "led": 559,
      "ng": 560,
      "Ġwent": 561,
      "omet": 562,
      "Ġco": 563,
      "ty": 564,
      "Ġpe": 565,
      "ward": 566,
      "ction": 567,
      "Ġgr": 568,
      "ady": 569,
      "Ġunder": 570,
      "ated": 571,
      "Ġhimself": 572,
      "os": 573,
      "...": 574,
      "sh": 575,
      "ip": 576,
      "Ġcome": 577,
      "Ġgood": 578,
      "Ġcame": 579,
      "Ġeven": 580,
      "Ġfir": 581,
      "Ġthink": 582,
      "man": 583,
      "Ġway": 584,
      "ened": 585,
      "for": 586,
      "rie": 587,
      "ave": 588,
      "Ġbl": 589,
      "Ġmuch": 590,
      "thing": 591,
      "ft": 592,
      "Ġface": 593,
      "Ġupon": 594,
      "Ġour": 595,
      "ÃŃ": 596,
      "Ġaway": 597,
      "na": 598,
      "ning": 599,
      "ierre": 600,
      "Ġeyes": 601,
      "ced": 602,
      "my": 603,
      "Ġhead": 604,
      "iss": 605,
      "ssi": 606,
      "rince": 607,
      "Ġlet": 608,
      "Ġturn": 609,
      "ily": 610,
      "ild": 611,
      "ber": 612,
      "ise": 613,
      "Ġgreat": 614,
      "Ġthr": 615,
      "ted": 616,
      "ĠShe": 617,
      "Ġown": 618,
      "Ġspe": 619,
      "co": 620,
      "Ġroom": 621,
      "Ġnever": 622,
      "Ġgl": 623,
      "ach": 624,
      "ark": 625,
      "Ġmade": 626,
      "Ġtwo": 627,
      "wh": 628,
      "les": 629,
      "ons": 630,
      "Ġ_": 631,
      "Ġpart": 632,
      "not": 633,
      "Ġmay": 634,
      "Ġper": 635,
      "Ġits": 636,
      "ps": 637,
      "Ġback": 638,
      "Ġlooked": 639,
      "ves": 640,
      "Ġsomet": 641,
      "He": 642,
      "Ġbec": 643,
      "Ġfirst": 644,
      "Ġpl": 645,
      "Ġhere": 646,
      "'t": 647,
      "Ġdon": 648,
      "sha": 649,
      "ff": 650,
      "ĠJo": 651,
      "Ġad": 652,
      "less": 653,
      "Ġsc": 654,
      "Ġhapp": 655,
      "Ġfo": 656,
      "Ġstill": 657,
      "ouse": 658,
      "ĠK": 659,
      "Ġho": 660,
      "ue": 661,
      "ause": 662,
      "Ġbet": 663,
      "Ġget": 664,
      "pect": 665,
      "Ġrep": 666,
      "Ġthough": 667,
      "ign": 668,
      "Ġjust": 669,
      "ied": 670,
      "ting": 671,
      "row": 672,
      "cess": 673,
      "Ġwhere": 674,
      "Ġword": 675,
      "leas": 676,
      "ces": 677,
      "king": 678,
      "Ġseemed": 679,
      "Ġdes": 680,
      "Ġlast": 681,
      "Ġcont": 682,
      "Ġshall": 683,
      "Ġwell": 684,
      "Ġmight": 685,
      "llow": 686,
      "Ġcha": 687,
      "eth": 688,
      "ĠPierre": 689,
      "Ġfl": 690,
      "Ġthese": 691,
      "so": 692,
      "Ġke": 693,
      "Ġtell": 694,
      "ently": 695,
      "Ġres": 696,
      "ions": 697,
      "aking": 698,
      "Ġpass": 699,
      "ud": 700,
      "'s": 701,
      "ni": 702,
      "Ġexp": 703,
      "tain": 704,
      "ord": 705,
      "riend": 706,
      "Ġtr": 707,
      "cy": 708,
      "Ġpr": 709,
      "Ġcomp": 710,
      "Ġbegan": 711,
      "Ġwithout": 712,
      "Ġmen": 713,
      "Ġfeel": 714,
      "Ġpla": 715,
      "Ġlife": 716,
      "Ġhar": 717,
      "Ġwant": 718,
      "with": 719,
      "Ġsaw": 720,
      "ER": 721,
      "âĢĺ": 722,
      "lt": 723,
      "ath": 724,
      "ner": 725,
      "Ġasked": 726,
      "Ġcons": 727,
      "Ġte": 728,
      "ci": 729,
      "ĠV": 730,
      "ever": 731,
      "It": 732,
      "Ġra": 733,
      "Ġsame": 734,
      "ling": 735,
      "ways": 736,
      "Ġob": 737,
      "Ġent": 738,
      "Ġop": 739,
      "oment": 740,
      "ater": 741,
      "ĠYou": 742,
      "And": 743,
      "HA": 744,
      "Ġthose": 745,
      "hale": 746,
      "atter": 747,
      "Ġyoung": 748,
      "Ġbeing": 749,
      "TER": 750,
      "fa": 751,
      "Ġsomething": 752,
      "Ġonce": 753,
      "Ġdoor": 754,
      "was": 755,
      "ory": 756,
      "Ġthrough": 757,
      "ared": 758,
      "ged": 759,
      "PTER": 760,
      "Ġnothing": 761,
      "HAPTER": 762,
      "Ġmost": 763,
      "Ġye": 764,
      "Ġcl": 765,
      "Ġsat": 766,
      "But": 767,
      "CHAPTER": 768,
      "ew": 769,
      "ect": 770,
      "get": 771,
      "Ġcount": 772,
      "Ġmake": 773,
      "Ġfelt": 774,
      "Ġtook": 775,
      "dden": 776,
      "ls": 777,
      "Ġfriend": 778,
      "med": 779,
      "vid": 780,
      "ener": 781,
      "atÃ¡": 782,
      "Ġwr": 783,
      "Ġdear": 784,
      "ĠPrince": 785,
      "Ġbel": 786,
      "Ġtal": 787,
      "iness": 788,
      "Ġleft": 789,
      "ople": 790,
      "Ġvo": 791,
      "Ġput": 792,
      "Ġmoment": 793,
      "pped": 794,
      "Ġcomm": 795,
      "Ġanother": 796,
      "Ġyet": 797,
      "Ġright": 798,
      "Ġnight": 799,
      "rench": 800,
      "Ġhor": 801,
      "ub": 802,
      "up": 803,
      "Ġimp": 804,
      "Ã©": 805,
      "ex": 806,
      "Ġret": 807,
      "Ġnew": 808,
      "hy": 809,
      "com": 810,
      "igh": 811,
      "Ġheard": 812,
      "atÃ¡sha": 813,
      "ask": 814,
      "iz": 815,
      "Ġatt": 816,
      "ished": 817,
      "Ġhouse": 818,
      "con": 819,
      "hes": 820,
      "Ġalways": 821,
      "ans": 822,
      "Ġhands": 823,
      "oth": 824,
      "Ġheart": 825,
      "Ġtake": 826,
      "ered": 827,
      "ret": 828,
      "What": 829,
      "Yes": 830,
      "Ġever": 831,
      "Ġ(": 832,
      "Ġcall": 833,
      "Ġpres": 834,
      "Ġacc": 835,
      "ody": 836,
      "Ġpa": 837,
      "Ã³v": 838,
      "Ġwhile": 839,
      "Ġlove": 840,
      "Ġround": 841,
      "Ġmar": 842,
      "most": 843,
      "you": 844,
      "ition": 845,
      "Ġpleas": 846,
      "ens": 847,
      "Ġgot": 848,
      "but": 849,
      "Ġser": 850,
      ".\"": 851,
      "lp": 852,
      "Ġfound": 853,
      "Ġend": 854,
      "oman": 855,
      "ĠSt": 856,
      "Ġfather": 857,
      "Ġap": 858,
      "Ġwa": 859,
      "oy": 860,
      "Ġpeople": 861,
      "ched": 862,
      ",\"": 863,
      "Ġmind": 864,
      "stand": 865,
      "Ġsoon": 866,
      "ully": 867,
      "Ġquite": 868,
      "ertain": 869,
      "uck": 870,
      "ger": 871,
      "Ġmother": 872,
      "ĠFrench": 873,
      "eg": 874,
      "int": 875,
      "Ġwhole": 876,
      "Ġans": 877,
      "Ġcar": 878,
      "ia": 879,
      "Ġadd": 880,
      "Ġknew": 881,
      "ross": 882,
      "ĠĠĠĠĠĠĠĠ": 883,
      "ks": 884,
      "az": 885,
      "ĠIn": 886,
      "him": 887,
      "Ġplace": 888,
      "ĠAndrew": 889,
      "aught": 890,
      "Ġreg": 891,
      "ations": 892,
      "Ġsil": 893,
      "Ġinst": 894,
      "arly": 895,
      "Ġgoing": 896,
      "Ġturned": 897,
      "Ġapp": 898,
      "Ġtold": 899,
      "Ġclo": 900,
      "Ġsudden": 901,
      "Ġmany": 902,
      "Ġdist": 903,
      "day": 904,
      "ase": 905,
      "Ġherself": 906,
      "der": 907,
      "Ġcried": 908,
      "Ġchild": 909,
      "ister": 910,
      "res": 911,
      "Ġlooking": 912,
      "ict": 913,
      "av": 914,
      "cl": 915,
      "Ġwind": 916,
      "Ġdone": 917,
      "rest": 918,
      "light": 919,
      "Ãº": 920,
      "oub": 921,
      "ostÃ³v": 922,
      "ised": 923,
      "ressed": 924,
      "kov": 925,
      "att": 926,
      "read": 927,
      "ĠThey": 928,
      "Ġseen": 929,
      "Ġthree": 930,
      "ĠThere": 931,
      "ained": 932,
      "su": 933,
      "Ġside": 934,
      "leep": 935,
      "Ġset": 936,
      "Ġcour": 937,
      "ĠWhat": 938,
      "Ġwhale": 939,
      "Ġarm": 940,
      "mer": 941,
      "rincess": 942,
      "Ġthings": 943,
      "Ġmor": 944,
      "Ġrest": 945,
      "ult": 946,
      "ĠNatÃ¡sha": 947,
      "Ġgir": 948,
      "now": 949,
      "arn": 950,
      "Ġthing": 951,
      "by": 952,
      "ject": 953,
      "fully": 954,
      "men": 955,
      "sk": 956,
      "Ġbecause": 957,
      "Ġhome": 958,
      "oved": 959,
      "ix": 960,
      "ower": 961,
      "ined": 962,
      "Ġchan": 963,
      "ating": 964,
      "Ġfind": 965,
      "ince": 966,
      "Ġlight": 967,
      "Ã³n": 968,
      "atch": 969,
      "aid": 970,
      "vent": 971,
      "Ġgener": 972,
      "cept": 973,
      "....": 974,
      "Ġsur": 975,
      "amp": 976,
      "Ġmyself": 977,
      "Ġdra": 978,
      "ute": 979,
      "imp": 980,
      "ovna": 981,
      "ser": 982,
      "Ġint": 983,
      "Ġvoice": 984,
      "ĠâĢĺ": 985,
      "had": 986,
      "Ġcle": 987,
      "Ġstood": 988,
      "ited": 989,
      "mb": 990,
      "Ġfar": 991,
      "Ġlo": 992,
      "vers": 993,
      "Ġgive": 994,
      "nikov": 995,
      "Ġbelie": 996,
      "ond": 997,
      "pr": 998,
      "Ġsupp": 999
    },
    "merges": [
      [
        "Ġ",
        "t"
      ],
      [
        "h",
        "e"
      ],
      [
        "Ġ",
        "a"
      ],
      [
        "i",
        "n"
      ],
      [
        "Ġ",
        "s"
      ],
      [
        "Ġ",
        "w"
      ],
      [
        "Ġt",
        "he"
      ],
      [
        "r",
        "e"
      ],
      [
        "n",
        "d"
      ],
      [
        "Ġ",
        "o"
      ],
      [
        "h",
        "a"
      ],
      [
        "â",
        "Ģ"
      ],
      [
        "o",
        "u"
      ],
      [
        "e",
        "r"
      ],
      [
        "e",
        "d"
      ],
      [
        "Ġ",
        "b"
      ],
      [
        "i",
        "t"
      ],
      [
        "i",
        "s"
      ],
      [
        "in",
        "g"
      ],
      [
        "Ġ",
        "m"
      ],
      [
        "Ġa",
        "nd"
      ],
      [
        "Ġ",
        "f"
      ],
      [
        "e",
        "n"
      ],
      [
        "o",
        "n"
      ],
      [
        "Ġt",
        "o"
      ],
      [
        "Ġ",
        "c"
      ],
      [
        "Ġo",
        "f"
      ],
      [
        "o",
        "r"
      ],
      [
        "Ġ",
        "h"
      ],
      [
        "l",
        "l"
      ],
      [
        "Ġ",
        "d"
      ],
      [
        "Ġ",
        "he"
      ],
      [
        "e",
        "s"
      ],
      [
        "a",
        "s"
      ],
      [
        "a",
        "r"
      ],
      [
        "Ġ",
        "l"
      ],
      [
        "a",
        "n"
      ],
      [
        "Ġ",
        "in"
      ],
      [
        "Ġ",
        "p"
      ],
      [
        "a",
        "t"
      ],
      [
        "Ġ",
        "n"
      ],
      [
        "ha",
        "t"
      ],
      [
        "o",
        "m"
      ],
      [
        "Ġ",
        "ha"
      ],
      [
        "Ġ",
        "I"
      ],
      [
        "l",
        "e"
      ],
      [
        "o",
        "w"
      ],
      [
        "o",
        "t"
      ],
      [
        "Ġb",
        "e"
      ],
      [
        "u",
        "t"
      ],
      [
        "i",
        "m"
      ],
      [
        "âĢ",
        "ľ"
      ],
      [
        "Ġ",
        "g"
      ],
      [
        "l",
        "y"
      ],
      [
        "âĢ",
        "Ŀ"
      ],
      [
        "s",
        "t"
      ],
      [
        "i",
        "d"
      ],
      [
        "Ġ",
        "y"
      ],
      [
        "i",
        "c"
      ],
      [
        "s",
        "e"
      ],
      [
        "Ġ",
        "e"
      ],
      [
        "v",
        "e"
      ],
      [
        "Ġt",
        "hat"
      ],
      [
        "l",
        "d"
      ],
      [
        "Ġw",
        "as"
      ],
      [
        "âĢ",
        "Ļ"
      ],
      [
        "Ġ",
        "it"
      ],
      [
        "g",
        "h"
      ],
      [
        "Ġo",
        "n"
      ],
      [
        "Ġt",
        "h"
      ],
      [
        "en",
        "t"
      ],
      [
        "e",
        "t"
      ],
      [
        "Ġy",
        "ou"
      ],
      [
        "c",
        "e"
      ],
      [
        "it",
        "h"
      ],
      [
        "Ġh",
        "is"
      ],
      [
        "a",
        "y"
      ],
      [
        "v",
        "er"
      ],
      [
        "Ġ",
        "re"
      ],
      [
        "Ġ",
        "u"
      ],
      [
        "Ġw",
        "ith"
      ],
      [
        "Ġa",
        "s"
      ],
      [
        "i",
        "on"
      ],
      [
        "i",
        "r"
      ],
      [
        "a",
        "d"
      ],
      [
        "Ġw",
        "h"
      ],
      [
        "a",
        "l"
      ],
      [
        "Ġf",
        "or"
      ],
      [
        "Ġhe",
        "r"
      ],
      [
        "u",
        "r"
      ],
      [
        "Ġn",
        "ot"
      ],
      [
        "r",
        "o"
      ],
      [
        "gh",
        "t"
      ],
      [
        "Ġs",
        "t"
      ],
      [
        "he",
        "r"
      ],
      [
        "Ġw",
        "e"
      ],
      [
        "r",
        "i"
      ],
      [
        "c",
        "h"
      ],
      [
        "Ġa",
        "t"
      ],
      [
        "Ġha",
        "d"
      ],
      [
        "o",
        "o"
      ],
      [
        "Ġh",
        "im"
      ],
      [
        "Ġa",
        "n"
      ],
      [
        "ou",
        "ld"
      ],
      [
        "Ġs",
        "a"
      ],
      [
        "Ġ",
        "T"
      ],
      [
        "t",
        "er"
      ],
      [
        "Ġ",
        "is"
      ],
      [
        "k",
        "e"
      ],
      [
        "a",
        "nd"
      ],
      [
        "Ġs",
        "e"
      ],
      [
        "c",
        "t"
      ],
      [
        "Ġs",
        "o"
      ],
      [
        "i",
        "ll"
      ],
      [
        "es",
        "s"
      ],
      [
        "i",
        "f"
      ],
      [
        "Ġm",
        "e"
      ],
      [
        "Ġ",
        "A"
      ],
      [
        "a",
        "in"
      ],
      [
        "Ġ",
        "M"
      ],
      [
        "a",
        "m"
      ],
      [
        "re",
        "d"
      ],
      [
        "Ġs",
        "he"
      ],
      [
        "Ġb",
        "ut"
      ],
      [
        "Ġ",
        "H"
      ],
      [
        "Ġa",
        "ll"
      ],
      [
        "Ġm",
        "y"
      ],
      [
        "om",
        "e"
      ],
      [
        "o",
        "re"
      ],
      [
        "p",
        "e"
      ],
      [
        "Ġs",
        "u"
      ],
      [
        "c",
        "k"
      ],
      [
        "r",
        "a"
      ],
      [
        ".",
        "âĢĿ"
      ],
      [
        "a",
        "ll"
      ],
      [
        "Ġ",
        "S"
      ],
      [
        "r",
        "om"
      ],
      [
        "i",
        "l"
      ],
      [
        "t",
        "h"
      ],
      [
        "Ġha",
        "ve"
      ],
      [
        "s",
        "s"
      ],
      [
        "t",
        "he"
      ],
      [
        "ic",
        "h"
      ],
      [
        "Ġ",
        "Ġ"
      ],
      [
        "q",
        "u"
      ],
      [
        "Ġd",
        "e"
      ],
      [
        "Ġ",
        "âĢľ"
      ],
      [
        "Ġ",
        "k"
      ],
      [
        "Ġ",
        "P"
      ],
      [
        "i",
        "ght"
      ],
      [
        ".",
        "."
      ],
      [
        "Ġ",
        "B"
      ],
      [
        "he",
        "n"
      ],
      [
        "Ġsa",
        "id"
      ],
      [
        "t",
        "o"
      ],
      [
        "Ġd",
        "o"
      ],
      [
        "Ġu",
        "p"
      ],
      [
        "l",
        "f"
      ],
      [
        "g",
        "e"
      ],
      [
        "Ġs",
        "h"
      ],
      [
        "b",
        "le"
      ],
      [
        "p",
        "p"
      ],
      [
        "Ġb",
        "y"
      ],
      [
        "u",
        "l"
      ],
      [
        "ver",
        "y"
      ],
      [
        "Ġ",
        "r"
      ],
      [
        "u",
        "st"
      ],
      [
        "Ġf",
        "rom"
      ],
      [
        "e",
        "m"
      ],
      [
        "ou",
        "t"
      ],
      [
        "Ġwe",
        "re"
      ],
      [
        "an",
        "t"
      ],
      [
        "Ġc",
        "on"
      ],
      [
        "o",
        "l"
      ],
      [
        "Ġn",
        "e"
      ],
      [
        "oo",
        "k"
      ],
      [
        "ĠT",
        "he"
      ],
      [
        "ar",
        "d"
      ],
      [
        "Ġf",
        "e"
      ],
      [
        "ou",
        "s"
      ],
      [
        ",",
        "âĢĿ"
      ],
      [
        "u",
        "n"
      ],
      [
        "es",
        "t"
      ],
      [
        "on",
        "e"
      ],
      [
        "Ġth",
        "is"
      ],
      [
        "Ġwh",
        "ich"
      ],
      [
        "u",
        "s"
      ],
      [
        "in",
        "d"
      ],
      [
        "er",
        "s"
      ],
      [
        "Ġwh",
        "o"
      ],
      [
        "Ġon",
        "e"
      ],
      [
        "Ġe",
        "x"
      ],
      [
        "o",
        "v"
      ],
      [
        "Ġk",
        "n"
      ],
      [
        "Ġo",
        "r"
      ],
      [
        "Ġ",
        "v"
      ],
      [
        "Ġ",
        "W"
      ],
      [
        "se",
        "lf"
      ],
      [
        "on",
        "g"
      ],
      [
        "at",
        "ion"
      ],
      [
        "Ġl",
        "i"
      ],
      [
        "ar",
        "t"
      ],
      [
        "Ġa",
        "l"
      ],
      [
        "oo",
        "d"
      ],
      [
        "ou",
        "nd"
      ],
      [
        "âĢ",
        "Ķ"
      ],
      [
        "Ġthe",
        "y"
      ],
      [
        "Ġm",
        "an"
      ],
      [
        "as",
        "t"
      ],
      [
        "ou",
        "r"
      ],
      [
        "Ġn",
        "o"
      ],
      [
        "i",
        "e"
      ],
      [
        "?",
        "âĢĿ"
      ],
      [
        "a",
        "k"
      ],
      [
        "ha",
        "n"
      ],
      [
        "Ġthe",
        "m"
      ],
      [
        "ow",
        "n"
      ],
      [
        "o",
        "st"
      ],
      [
        "ĠH",
        "e"
      ],
      [
        "ou",
        "gh"
      ],
      [
        "Ġo",
        "ut"
      ],
      [
        "r",
        "y"
      ],
      [
        "Ġthe",
        "re"
      ],
      [
        "is",
        "t"
      ],
      [
        "Ġw",
        "hat"
      ],
      [
        "u",
        "m"
      ],
      [
        "Ġa",
        "re"
      ],
      [
        "it",
        "t"
      ],
      [
        "Ġw",
        "ould"
      ],
      [
        "Ġ",
        "D"
      ],
      [
        "!",
        "âĢĿ"
      ],
      [
        "Ġa",
        "b"
      ],
      [
        "Ġbe",
        "en"
      ],
      [
        "Ġl",
        "e"
      ],
      [
        "n",
        "t"
      ],
      [
        "e",
        "ll"
      ],
      [
        "he",
        "d"
      ],
      [
        "at",
        "e"
      ],
      [
        "Ġc",
        "om"
      ],
      [
        "Ġw",
        "hen"
      ],
      [
        "Ġl",
        "ook"
      ],
      [
        "e",
        "l"
      ],
      [
        "Ġ",
        "N"
      ],
      [
        "h",
        "ing"
      ],
      [
        "or",
        "t"
      ],
      [
        "p",
        "t"
      ],
      [
        "Ġw",
        "or"
      ],
      [
        "Ġ",
        "L"
      ],
      [
        "v",
        "en"
      ],
      [
        "i",
        "g"
      ],
      [
        "Ġf",
        "a"
      ],
      [
        "u",
        "re"
      ],
      [
        "am",
        "e"
      ],
      [
        "w",
        "ay"
      ],
      [
        "Ġyou",
        "r"
      ],
      [
        "Ġ",
        "if"
      ],
      [
        "-",
        "-"
      ],
      [
        "T",
        "he"
      ],
      [
        "Ġa",
        "g"
      ],
      [
        "Ġg",
        "o"
      ],
      [
        "l",
        "a"
      ],
      [
        "Ġ",
        "j"
      ],
      [
        "p",
        "o"
      ],
      [
        "Ġc",
        "ould"
      ],
      [
        "Ġ",
        "R"
      ],
      [
        "i",
        "ve"
      ],
      [
        "p",
        "er"
      ],
      [
        "Ġu",
        "n"
      ],
      [
        "Ġ",
        "ro"
      ],
      [
        "Ġ",
        "C"
      ],
      [
        "Ġd",
        "id"
      ],
      [
        "Ġ",
        "qu"
      ],
      [
        "Ġw",
        "ill"
      ],
      [
        "o",
        "d"
      ],
      [
        "id",
        "e"
      ],
      [
        "l",
        "o"
      ],
      [
        "a",
        "u"
      ],
      [
        "Ġa",
        "m"
      ],
      [
        "ot",
        "her"
      ],
      [
        "Ġs",
        "ome"
      ],
      [
        "Ġthe",
        "ir"
      ],
      [
        "Ġt",
        "im"
      ],
      [
        "Ġa",
        "r"
      ],
      [
        "t",
        "her"
      ],
      [
        "nd",
        "er"
      ],
      [
        "it",
        "e"
      ],
      [
        "r",
        "in"
      ],
      [
        "Ġn",
        "ow"
      ],
      [
        "Ġan",
        "y"
      ],
      [
        "Ġa",
        "f"
      ],
      [
        "it",
        "y"
      ],
      [
        "e",
        "p"
      ],
      [
        "ur",
        "n"
      ],
      [
        "Ġkn",
        "ow"
      ],
      [
        "re",
        "at"
      ],
      [
        "t",
        "e"
      ],
      [
        "ic",
        "e"
      ],
      [
        "a",
        "ble"
      ],
      [
        "Ġm",
        "ore"
      ],
      [
        "re",
        "ss"
      ],
      [
        "a",
        "ke"
      ],
      [
        "k",
        "ed"
      ],
      [
        "Ġp",
        "o"
      ],
      [
        "ĠĠ",
        "ĠĠ"
      ],
      [
        "ou",
        "ght"
      ],
      [
        "Ġc",
        "an"
      ],
      [
        "o",
        "f"
      ],
      [
        "f",
        "ore"
      ],
      [
        "l",
        "i"
      ],
      [
        "Ġ",
        "very"
      ],
      [
        "a",
        "g"
      ],
      [
        "Ġin",
        "to"
      ],
      [
        "Ġ",
        "F"
      ],
      [
        "o",
        "p"
      ],
      [
        "Ġse",
        "e"
      ],
      [
        "f",
        "e"
      ],
      [
        "Ġli",
        "ke"
      ],
      [
        "Ġ",
        "J"
      ],
      [
        "Ġto",
        "o"
      ],
      [
        "Ġha",
        "nd"
      ],
      [
        "as",
        "s"
      ],
      [
        "Ġthe",
        "n"
      ],
      [
        "itt",
        "le"
      ],
      [
        "w",
        "e"
      ],
      [
        "a",
        "b"
      ],
      [
        "Ġp",
        "re"
      ],
      [
        "a",
        "re"
      ],
      [
        "Ã",
        "¡"
      ],
      [
        "ou",
        "nt"
      ],
      [
        "Ġtim",
        "e"
      ],
      [
        "Ġon",
        "ly"
      ],
      [
        "Ġab",
        "out"
      ],
      [
        "all",
        "y"
      ],
      [
        "Ġo",
        "ver"
      ],
      [
        "Ġs",
        "ha"
      ],
      [
        "ĠA",
        "nd"
      ],
      [
        "in",
        "e"
      ],
      [
        "b",
        "e"
      ],
      [
        "Ġag",
        "ain"
      ],
      [
        "i",
        "ous"
      ],
      [
        "a",
        "ck"
      ],
      [
        "Ġu",
        "s"
      ],
      [
        "d",
        "d"
      ],
      [
        "an",
        "ce"
      ],
      [
        "Ġs",
        "ay"
      ],
      [
        "he",
        "re"
      ],
      [
        "en",
        "ce"
      ],
      [
        "a",
        "c"
      ],
      [
        "Ġs",
        "p"
      ],
      [
        "re",
        "n"
      ],
      [
        "o",
        "ve"
      ],
      [
        "Ġo",
        "ther"
      ],
      [
        "Ġ",
        "im"
      ],
      [
        "Ã",
        "³"
      ],
      [
        "i",
        "er"
      ],
      [
        "Ġ",
        "E"
      ],
      [
        "r",
        "u"
      ],
      [
        "m",
        "e"
      ],
      [
        "d",
        "e"
      ],
      [
        "Ġd",
        "own"
      ],
      [
        "Y",
        "ou"
      ],
      [
        "Ġl",
        "ittle"
      ],
      [
        "Ġh",
        "ow"
      ],
      [
        "is",
        "h"
      ],
      [
        "i",
        "le"
      ],
      [
        "v",
        "ing"
      ],
      [
        "Ġ",
        "G"
      ],
      [
        "in",
        "k"
      ],
      [
        "w",
        "n"
      ],
      [
        "Ġp",
        "ro"
      ],
      [
        "ĠM",
        "r"
      ],
      [
        "Ġof",
        "f"
      ],
      [
        "at",
        "her"
      ],
      [
        "n",
        "e"
      ],
      [
        "v",
        "ed"
      ],
      [
        "ar",
        "y"
      ],
      [
        "Ġt",
        "han"
      ],
      [
        "u",
        "ch"
      ],
      [
        "Ġt",
        "w"
      ],
      [
        "ri",
        "ed"
      ],
      [
        "Ġs",
        "m"
      ],
      [
        "ĠB",
        "ut"
      ],
      [
        "i",
        "re"
      ],
      [
        "ing",
        "s"
      ],
      [
        "i",
        "es"
      ],
      [
        "c",
        "c"
      ],
      [
        "n",
        "ess"
      ],
      [
        "ĠI",
        "t"
      ],
      [
        "f",
        "ul"
      ],
      [
        "u",
        "ll"
      ],
      [
        "Ġ",
        "en"
      ],
      [
        "Ġha",
        "s"
      ],
      [
        "Ġe",
        "very"
      ],
      [
        "Ġbe",
        "fore"
      ],
      [
        "m",
        "ent"
      ],
      [
        "Ġbe",
        "g"
      ],
      [
        "if",
        "e"
      ],
      [
        "Ġc",
        "h"
      ],
      [
        "Ġd",
        "ay"
      ],
      [
        "a",
        "ge"
      ],
      [
        "Ġse",
        "em"
      ],
      [
        "ad",
        "e"
      ],
      [
        "Ġe",
        "y"
      ],
      [
        "Ġb",
        "r"
      ],
      [
        "re",
        "w"
      ],
      [
        "Ġd",
        "is"
      ],
      [
        "Ġb",
        "o"
      ],
      [
        "Ġo",
        "ld"
      ],
      [
        "h",
        "is"
      ],
      [
        "Ġsh",
        "ould"
      ],
      [
        "Ġre",
        "m"
      ],
      [
        "a",
        "p"
      ],
      [
        "ri",
        "ght"
      ],
      [
        "re",
        "e"
      ],
      [
        "Ġl",
        "ong"
      ],
      [
        "r",
        "an"
      ],
      [
        "ar",
        "s"
      ],
      [
        "Ġm",
        "ust"
      ],
      [
        "t",
        "hat"
      ],
      [
        "o",
        "se"
      ],
      [
        "Ġsu",
        "ch"
      ],
      [
        "Ġ",
        "O"
      ],
      [
        "Ġaf",
        "ter"
      ],
      [
        "Ġth",
        "ought"
      ],
      [
        "ic",
        "k"
      ],
      [
        "l",
        "ed"
      ],
      [
        "n",
        "g"
      ],
      [
        "Ġw",
        "ent"
      ],
      [
        "om",
        "et"
      ],
      [
        "Ġc",
        "o"
      ],
      [
        "t",
        "y"
      ],
      [
        "Ġp",
        "e"
      ],
      [
        "w",
        "ard"
      ],
      [
        "ct",
        "ion"
      ],
      [
        "Ġg",
        "r"
      ],
      [
        "ad",
        "y"
      ],
      [
        "Ġu",
        "nder"
      ],
      [
        "at",
        "ed"
      ],
      [
        "Ġhim",
        "self"
      ],
      [
        "o",
        "s"
      ],
      [
        "..",
        "."
      ],
      [
        "s",
        "h"
      ],
      [
        "i",
        "p"
      ],
      [
        "Ġc",
        "ome"
      ],
      [
        "Ġg",
        "ood"
      ],
      [
        "Ġc",
        "ame"
      ],
      [
        "Ġe",
        "ven"
      ],
      [
        "Ġf",
        "ir"
      ],
      [
        "Ġth",
        "ink"
      ],
      [
        "m",
        "an"
      ],
      [
        "Ġw",
        "ay"
      ],
      [
        "en",
        "ed"
      ],
      [
        "f",
        "or"
      ],
      [
        "ri",
        "e"
      ],
      [
        "a",
        "ve"
      ],
      [
        "Ġb",
        "l"
      ],
      [
        "Ġm",
        "uch"
      ],
      [
        "th",
        "ing"
      ],
      [
        "f",
        "t"
      ],
      [
        "Ġfa",
        "ce"
      ],
      [
        "Ġup",
        "on"
      ],
      [
        "Ġo",
        "ur"
      ],
      [
        "Ã",
        "Ń"
      ],
      [
        "Ġa",
        "way"
      ],
      [
        "n",
        "a"
      ],
      [
        "n",
        "ing"
      ],
      [
        "ier",
        "re"
      ],
      [
        "Ġey",
        "es"
      ],
      [
        "c",
        "ed"
      ],
      [
        "m",
        "y"
      ],
      [
        "Ġhe",
        "ad"
      ],
      [
        "is",
        "s"
      ],
      [
        "ss",
        "i"
      ],
      [
        "rin",
        "ce"
      ],
      [
        "Ġl",
        "et"
      ],
      [
        "Ġt",
        "urn"
      ],
      [
        "i",
        "ly"
      ],
      [
        "i",
        "ld"
      ],
      [
        "b",
        "er"
      ],
      [
        "is",
        "e"
      ],
      [
        "Ġg",
        "reat"
      ],
      [
        "Ġth",
        "r"
      ],
      [
        "t",
        "ed"
      ],
      [
        "ĠS",
        "he"
      ],
      [
        "Ġo",
        "wn"
      ],
      [
        "Ġs",
        "pe"
      ],
      [
        "c",
        "o"
      ],
      [
        "Ġro",
        "om"
      ],
      [
        "Ġne",
        "ver"
      ],
      [
        "Ġg",
        "l"
      ],
      [
        "a",
        "ch"
      ],
      [
        "ar",
        "k"
      ],
      [
        "Ġm",
        "ade"
      ],
      [
        "Ġtw",
        "o"
      ],
      [
        "w",
        "h"
      ],
      [
        "l",
        "es"
      ],
      [
        "on",
        "s"
      ],
      [
        "Ġ",
        "_"
      ],
      [
        "Ġp",
        "art"
      ],
      [
        "n",
        "ot"
      ],
      [
        "Ġm",
        "ay"
      ],
      [
        "Ġp",
        "er"
      ],
      [
        "Ġit",
        "s"
      ],
      [
        "p",
        "s"
      ],
      [
        "Ġb",
        "ack"
      ],
      [
        "Ġlook",
        "ed"
      ],
      [
        "v",
        "es"
      ],
      [
        "Ġs",
        "omet"
      ],
      [
        "H",
        "e"
      ],
      [
        "Ġbe",
        "c"
      ],
      [
        "Ġfir",
        "st"
      ],
      [
        "Ġp",
        "l"
      ],
      [
        "Ġhe",
        "re"
      ],
      [
        "'",
        "t"
      ],
      [
        "Ġd",
        "on"
      ],
      [
        "s",
        "ha"
      ],
      [
        "f",
        "f"
      ],
      [
        "ĠJ",
        "o"
      ],
      [
        "Ġa",
        "d"
      ],
      [
        "l",
        "ess"
      ],
      [
        "Ġs",
        "c"
      ],
      [
        "Ġha",
        "pp"
      ],
      [
        "Ġf",
        "o"
      ],
      [
        "Ġst",
        "ill"
      ],
      [
        "ou",
        "se"
      ],
      [
        "Ġ",
        "K"
      ],
      [
        "Ġh",
        "o"
      ],
      [
        "u",
        "e"
      ],
      [
        "au",
        "se"
      ],
      [
        "Ġbe",
        "t"
      ],
      [
        "Ġg",
        "et"
      ],
      [
        "pe",
        "ct"
      ],
      [
        "Ġre",
        "p"
      ],
      [
        "Ġth",
        "ough"
      ],
      [
        "ig",
        "n"
      ],
      [
        "Ġj",
        "ust"
      ],
      [
        "i",
        "ed"
      ],
      [
        "t",
        "ing"
      ],
      [
        "r",
        "ow"
      ],
      [
        "c",
        "ess"
      ],
      [
        "Ġw",
        "here"
      ],
      [
        "Ġwor",
        "d"
      ],
      [
        "le",
        "as"
      ],
      [
        "c",
        "es"
      ],
      [
        "k",
        "ing"
      ],
      [
        "Ġseem",
        "ed"
      ],
      [
        "Ġd",
        "es"
      ],
      [
        "Ġl",
        "ast"
      ],
      [
        "Ġcon",
        "t"
      ],
      [
        "Ġsha",
        "ll"
      ],
      [
        "Ġwe",
        "ll"
      ],
      [
        "Ġm",
        "ight"
      ],
      [
        "ll",
        "ow"
      ],
      [
        "Ġc",
        "ha"
      ],
      [
        "et",
        "h"
      ],
      [
        "ĠP",
        "ierre"
      ],
      [
        "Ġf",
        "l"
      ],
      [
        "Ġthe",
        "se"
      ],
      [
        "s",
        "o"
      ],
      [
        "Ġ",
        "ke"
      ],
      [
        "Ġt",
        "ell"
      ],
      [
        "ent",
        "ly"
      ],
      [
        "Ġre",
        "s"
      ],
      [
        "ion",
        "s"
      ],
      [
        "ak",
        "ing"
      ],
      [
        "Ġp",
        "ass"
      ],
      [
        "u",
        "d"
      ],
      [
        "'",
        "s"
      ],
      [
        "n",
        "i"
      ],
      [
        "Ġex",
        "p"
      ],
      [
        "t",
        "ain"
      ],
      [
        "or",
        "d"
      ],
      [
        "rie",
        "nd"
      ],
      [
        "Ġt",
        "r"
      ],
      [
        "c",
        "y"
      ],
      [
        "Ġp",
        "r"
      ],
      [
        "Ġcom",
        "p"
      ],
      [
        "Ġbeg",
        "an"
      ],
      [
        "Ġwith",
        "out"
      ],
      [
        "Ġm",
        "en"
      ],
      [
        "Ġfe",
        "el"
      ],
      [
        "Ġp",
        "la"
      ],
      [
        "Ġl",
        "ife"
      ],
      [
        "Ġha",
        "r"
      ],
      [
        "Ġw",
        "ant"
      ],
      [
        "w",
        "ith"
      ],
      [
        "Ġsa",
        "w"
      ],
      [
        "E",
        "R"
      ],
      [
        "âĢ",
        "ĺ"
      ],
      [
        "l",
        "t"
      ],
      [
        "at",
        "h"
      ],
      [
        "n",
        "er"
      ],
      [
        "Ġas",
        "ked"
      ],
      [
        "Ġcon",
        "s"
      ],
      [
        "Ġt",
        "e"
      ],
      [
        "c",
        "i"
      ],
      [
        "Ġ",
        "V"
      ],
      [
        "e",
        "ver"
      ],
      [
        "I",
        "t"
      ],
      [
        "Ġ",
        "ra"
      ],
      [
        "Ġsa",
        "me"
      ],
      [
        "l",
        "ing"
      ],
      [
        "way",
        "s"
      ],
      [
        "Ġo",
        "b"
      ],
      [
        "Ġ",
        "ent"
      ],
      [
        "Ġo",
        "p"
      ],
      [
        "om",
        "ent"
      ],
      [
        "at",
        "er"
      ],
      [
        "Ġ",
        "You"
      ],
      [
        "A",
        "nd"
      ],
      [
        "H",
        "A"
      ],
      [
        "Ġth",
        "ose"
      ],
      [
        "ha",
        "le"
      ],
      [
        "at",
        "ter"
      ],
      [
        "Ġyou",
        "ng"
      ],
      [
        "Ġbe",
        "ing"
      ],
      [
        "T",
        "ER"
      ],
      [
        "f",
        "a"
      ],
      [
        "Ġsomet",
        "hing"
      ],
      [
        "Ġon",
        "ce"
      ],
      [
        "Ġdo",
        "or"
      ],
      [
        "w",
        "as"
      ],
      [
        "or",
        "y"
      ],
      [
        "Ġthr",
        "ough"
      ],
      [
        "a",
        "red"
      ],
      [
        "g",
        "ed"
      ],
      [
        "P",
        "TER"
      ],
      [
        "Ġnot",
        "hing"
      ],
      [
        "HA",
        "PTER"
      ],
      [
        "Ġm",
        "ost"
      ],
      [
        "Ġy",
        "e"
      ],
      [
        "Ġc",
        "l"
      ],
      [
        "Ġs",
        "at"
      ],
      [
        "B",
        "ut"
      ],
      [
        "C",
        "HAPTER"
      ],
      [
        "e",
        "w"
      ],
      [
        "e",
        "ct"
      ],
      [
        "g",
        "et"
      ],
      [
        "Ġc",
        "ount"
      ],
      [
        "Ġm",
        "ake"
      ],
      [
        "Ġfe",
        "lt"
      ],
      [
        "Ġtoo",
        "k"
      ],
      [
        "dd",
        "en"
      ],
      [
        "l",
        "s"
      ],
      [
        "Ġf",
        "riend"
      ],
      [
        "m",
        "ed"
      ],
      [
        "v",
        "id"
      ],
      [
        "en",
        "er"
      ],
      [
        "at",
        "Ã¡"
      ],
      [
        "Ġw",
        "r"
      ],
      [
        "Ġde",
        "ar"
      ],
      [
        "ĠP",
        "rince"
      ],
      [
        "Ġbe",
        "l"
      ],
      [
        "Ġt",
        "al"
      ],
      [
        "in",
        "ess"
      ],
      [
        "Ġle",
        "ft"
      ],
      [
        "op",
        "le"
      ],
      [
        "Ġv",
        "o"
      ],
      [
        "Ġp",
        "ut"
      ],
      [
        "Ġm",
        "oment"
      ],
      [
        "pp",
        "ed"
      ],
      [
        "Ġcom",
        "m"
      ],
      [
        "Ġan",
        "other"
      ],
      [
        "Ġy",
        "et"
      ],
      [
        "Ġ",
        "right"
      ],
      [
        "Ġn",
        "ight"
      ],
      [
        "ren",
        "ch"
      ],
      [
        "Ġh",
        "or"
      ],
      [
        "u",
        "b"
      ],
      [
        "u",
        "p"
      ],
      [
        "Ġim",
        "p"
      ],
      [
        "Ã",
        "©"
      ],
      [
        "e",
        "x"
      ],
      [
        "Ġre",
        "t"
      ],
      [
        "Ġne",
        "w"
      ],
      [
        "h",
        "y"
      ],
      [
        "c",
        "om"
      ],
      [
        "i",
        "gh"
      ],
      [
        "Ġhe",
        "ard"
      ],
      [
        "atÃ¡",
        "sha"
      ],
      [
        "as",
        "k"
      ],
      [
        "i",
        "z"
      ],
      [
        "Ġat",
        "t"
      ],
      [
        "is",
        "hed"
      ],
      [
        "Ġh",
        "ouse"
      ],
      [
        "c",
        "on"
      ],
      [
        "he",
        "s"
      ],
      [
        "Ġal",
        "ways"
      ],
      [
        "an",
        "s"
      ],
      [
        "Ġhand",
        "s"
      ],
      [
        "ot",
        "h"
      ],
      [
        "Ġhe",
        "art"
      ],
      [
        "Ġt",
        "ake"
      ],
      [
        "e",
        "red"
      ],
      [
        "re",
        "t"
      ],
      [
        "W",
        "hat"
      ],
      [
        "Y",
        "es"
      ],
      [
        "Ġe",
        "ver"
      ],
      [
        "Ġ",
        "("
      ],
      [
        "Ġc",
        "all"
      ],
      [
        "Ġpre",
        "s"
      ],
      [
        "Ġa",
        "cc"
      ],
      [
        "od",
        "y"
      ],
      [
        "Ġp",
        "a"
      ],
      [
        "Ã³",
        "v"
      ],
      [
        "Ġwh",
        "ile"
      ],
      [
        "Ġl",
        "ove"
      ],
      [
        "Ġr",
        "ound"
      ],
      [
        "Ġm",
        "ar"
      ],
      [
        "m",
        "ost"
      ],
      [
        "y",
        "ou"
      ],
      [
        "it",
        "ion"
      ],
      [
        "Ġp",
        "leas"
      ],
      [
        "en",
        "s"
      ],
      [
        "Ġg",
        "ot"
      ],
      [
        "b",
        "ut"
      ],
      [
        "Ġs",
        "er"
      ],
      [
        ".",
        "\""
      ],
      [
        "l",
        "p"
      ],
      [
        "Ġf",
        "ound"
      ],
      [
        "Ġe",
        "nd"
      ],
      [
        "om",
        "an"
      ],
      [
        "ĠS",
        "t"
      ],
      [
        "Ġf",
        "ather"
      ],
      [
        "Ġa",
        "p"
      ],
      [
        "Ġw",
        "a"
      ],
      [
        "o",
        "y"
      ],
      [
        "Ġpe",
        "ople"
      ],
      [
        "c",
        "hed"
      ],
      [
        ",",
        "\""
      ],
      [
        "Ġm",
        "ind"
      ],
      [
        "st",
        "and"
      ],
      [
        "Ġso",
        "on"
      ],
      [
        "ull",
        "y"
      ],
      [
        "Ġqu",
        "ite"
      ],
      [
        "er",
        "tain"
      ],
      [
        "u",
        "ck"
      ],
      [
        "g",
        "er"
      ],
      [
        "Ġm",
        "other"
      ],
      [
        "ĠF",
        "rench"
      ],
      [
        "e",
        "g"
      ],
      [
        "in",
        "t"
      ],
      [
        "Ġwho",
        "le"
      ],
      [
        "Ġan",
        "s"
      ],
      [
        "Ġc",
        "ar"
      ],
      [
        "i",
        "a"
      ],
      [
        "Ġa",
        "dd"
      ],
      [
        "Ġkn",
        "ew"
      ],
      [
        "ro",
        "ss"
      ],
      [
        "ĠĠĠĠ",
        "ĠĠĠĠ"
      ],
      [
        "k",
        "s"
      ],
      [
        "a",
        "z"
      ],
      [
        "ĠI",
        "n"
      ],
      [
        "h",
        "im"
      ],
      [
        "Ġpla",
        "ce"
      ],
      [
        "ĠAnd",
        "rew"
      ],
      [
        "au",
        "ght"
      ],
      [
        "Ġre",
        "g"
      ],
      [
        "ation",
        "s"
      ],
      [
        "Ġs",
        "il"
      ],
      [
        "Ġin",
        "st"
      ],
      [
        "ar",
        "ly"
      ],
      [
        "Ġgo",
        "ing"
      ],
      [
        "Ġturn",
        "ed"
      ],
      [
        "Ġa",
        "pp"
      ],
      [
        "Ġto",
        "ld"
      ],
      [
        "Ġc",
        "lo"
      ],
      [
        "Ġsu",
        "dden"
      ],
      [
        "Ġman",
        "y"
      ],
      [
        "Ġd",
        "ist"
      ],
      [
        "d",
        "ay"
      ],
      [
        "as",
        "e"
      ],
      [
        "Ġher",
        "self"
      ],
      [
        "d",
        "er"
      ],
      [
        "Ġc",
        "ried"
      ],
      [
        "Ġch",
        "ild"
      ],
      [
        "is",
        "ter"
      ],
      [
        "re",
        "s"
      ],
      [
        "Ġlook",
        "ing"
      ],
      [
        "ic",
        "t"
      ],
      [
        "a",
        "v"
      ],
      [
        "c",
        "l"
      ],
      [
        "Ġw",
        "ind"
      ],
      [
        "Ġd",
        "one"
      ],
      [
        "re",
        "st"
      ],
      [
        "l",
        "ight"
      ],
      [
        "Ã",
        "º"
      ],
      [
        "ou",
        "b"
      ],
      [
        "ost",
        "Ã³v"
      ],
      [
        "is",
        "ed"
      ],
      [
        "ress",
        "ed"
      ],
      [
        "k",
        "ov"
      ],
      [
        "at",
        "t"
      ],
      [
        "re",
        "ad"
      ],
      [
        "ĠThe",
        "y"
      ],
      [
        "Ġse",
        "en"
      ],
      [
        "Ġth",
        "ree"
      ],
      [
        "ĠThe",
        "re"
      ],
      [
        "ain",
        "ed"
      ],
      [
        "s",
        "u"
      ],
      [
        "Ġs",
        "ide"
      ],
      [
        "le",
        "ep"
      ],
      [
        "Ġs",
        "et"
      ],
      [
        "Ġc",
        "our"
      ],
      [
        "ĠW",
        "hat"
      ],
      [
        "Ġw",
        "hale"
      ],
      [
        "Ġar",
        "m"
      ],
      [
        "m",
        "er"
      ],
      [
        "rin",
        "cess"
      ],
      [
        "Ġth",
        "ings"
      ],
      [
        "Ġm",
        "or"
      ],
      [
        "Ġre",
        "st"
      ],
      [
        "ul",
        "t"
      ],
      [
        "ĠN",
        "atÃ¡sha"
      ],
      [
        "Ġg",
        "ir"
      ],
      [
        "n",
        "ow"
      ],
      [
        "ar",
        "n"
      ],
      [
        "Ġth",
        "ing"
      ],
      [
        "b",
        "y"
      ],
      [
        "j",
        "ect"
      ],
      [
        "f",
        "ully"
      ],
      [
        "m",
        "en"
      ],
      [
        "s",
        "k"
      ],
      [
        "Ġbec",
        "ause"
      ],
      [
        "Ġh",
        "ome"
      ],
      [
        "ov",
        "ed"
      ],
      [
        "i",
        "x"
      ],
      [
        "ow",
        "er"
      ],
      [
        "in",
        "ed"
      ],
      [
        "Ġc",
        "han"
      ],
      [
        "at",
        "ing"
      ],
      [
        "Ġf",
        "ind"
      ],
      [
        "in",
        "ce"
      ],
      [
        "Ġl",
        "ight"
      ],
      [
        "Ã³",
        "n"
      ],
      [
        "at",
        "ch"
      ],
      [
        "a",
        "id"
      ],
      [
        "v",
        "ent"
      ],
      [
        "Ġg",
        "ener"
      ],
      [
        "ce",
        "pt"
      ],
      [
        "..",
        ".."
      ],
      [
        "Ġs",
        "ur"
      ],
      [
        "am",
        "p"
      ],
      [
        "Ġmy",
        "self"
      ],
      [
        "Ġd",
        "ra"
      ],
      [
        "ut",
        "e"
      ],
      [
        "im",
        "p"
      ],
      [
        "ov",
        "na"
      ],
      [
        "s",
        "er"
      ],
      [
        "Ġin",
        "t"
      ],
      [
        "Ġvo",
        "ice"
      ],
      [
        "Ġ",
        "âĢĺ"
      ],
      [
        "ha",
        "d"
      ],
      [
        "Ġc",
        "le"
      ],
      [
        "Ġst",
        "ood"
      ],
      [
        "it",
        "ed"
      ],
      [
        "m",
        "b"
      ],
      [
        "Ġf",
        "ar"
      ],
      [
        "Ġl",
        "o"
      ],
      [
        "ver",
        "s"
      ],
      [
        "Ġg",
        "ive"
      ],
      [
        "ni",
        "kov"
      ],
      [
        "Ġbel",
        "ie"
      ],
      [
        "o",
        "nd"
      ],
      [
        "p",
        "r"
      ],
      [
        "Ġsu",
        "pp"
      ]
    ]
  }
}